{
  "version": "1.0",
  "truncation": null,
  "padding": null,
  "added_tokens": [
    {
      "id": 0,
      "content": "[UNK]",
      "single_word": false,
      "lstrip": false,
      "rstrip": false,
      "normalized": false,
      "special": true
    },
    {
      "id": 1,
      "content": "[CLS]",
      "single_word": false,
      "lstrip": false,
      "rstrip": false,
      "normalized": false,
      "special": true
    },
    {
      "id": 2,
      "content": "[SEP]",
      "single_word": false,
      "lstrip": false,
      "rstrip": false,
      "normalized": false,
      "special": true
    },
    {
      "id": 3,
      "content": "[PAD]",
      "single_word": false,
      "lstrip": false,
      "rstrip": false,
      "normalized": false,
      "special": true
    },
    {
      "id": 4,
      "content": "[MASK]",
      "single_word": false,
      "lstrip": false,
      "rstrip": false,
      "normalized": false,
      "special": true
    },
    {
      "id": 5,
      "content": "[PAR]",
      "single_word": false,
      "lstrip": false,
      "rstrip": false,
      "normalized": false,
      "special": true
    },
    {
      "id": 6,
      "content": "[TAB]",
      "single_word": false,
      "lstrip": false,
      "rstrip": false,
      "normalized": false,
      "special": true
    }
  ],
  "normalizer": null,
  "pre_tokenizer": {
    "type": "Sequence",
    "pretokenizers": [
      {
        "type": "ByteLevel",
        "add_prefix_space": true,
        "trim_offsets": true,
        "use_regex": true
      },
      {
        "type": "Digits",
        "individual_digits": true
      }
    ]
  },
  "post_processor": {
    "type": "ByteLevel",
    "add_prefix_space": true,
    "trim_offsets": true,
    "use_regex": true
  },
  "decoder": {
    "type": "ByteLevel",
    "add_prefix_space": true,
    "trim_offsets": true,
    "use_regex": true
  },
  "model": {
    "type": "WordPiece",
    "unk_token": "[UNK]",
    "continuing_subword_prefix": "",
    "max_input_chars_per_word": 100,
    "vocab": {
      "[UNK]": 0,
      "[CLS]": 1,
      "[SEP]": 2,
      "[PAD]": 3,
      "[MASK]": 4,
      "[PAR]": 5,
      "[TAB]": 6,
      "!": 7,
      "\"": 8,
      "#": 9,
      "$": 10,
      "%": 11,
      "&": 12,
      "'": 13,
      "(": 14,
      ")": 15,
      "*": 16,
      "+": 17,
      ",": 18,
      "-": 19,
      ".": 20,
      "/": 21,
      "0": 22,
      "1": 23,
      "2": 24,
      "3": 25,
      "4": 26,
      "5": 27,
      "6": 28,
      "7": 29,
      "8": 30,
      "9": 31,
      ":": 32,
      ";": 33,
      "<": 34,
      "=": 35,
      ">": 36,
      "?": 37,
      "@": 38,
      "A": 39,
      "B": 40,
      "C": 41,
      "D": 42,
      "E": 43,
      "F": 44,
      "G": 45,
      "H": 46,
      "I": 47,
      "J": 48,
      "K": 49,
      "L": 50,
      "M": 51,
      "N": 52,
      "O": 53,
      "P": 54,
      "Q": 55,
      "R": 56,
      "S": 57,
      "T": 58,
      "U": 59,
      "V": 60,
      "W": 61,
      "X": 62,
      "Y": 63,
      "Z": 64,
      "[": 65,
      "\\": 66,
      "]": 67,
      "^": 68,
      "_": 69,
      "`": 70,
      "a": 71,
      "b": 72,
      "c": 73,
      "d": 74,
      "e": 75,
      "f": 76,
      "g": 77,
      "h": 78,
      "i": 79,
      "j": 80,
      "k": 81,
      "l": 82,
      "m": 83,
      "n": 84,
      "o": 85,
      "p": 86,
      "q": 87,
      "r": 88,
      "s": 89,
      "t": 90,
      "u": 91,
      "v": 92,
      "w": 93,
      "x": 94,
      "y": 95,
      "z": 96,
      "{": 97,
      "|": 98,
      "}": 99,
      "~": 100,
      "¡": 101,
      "¢": 102,
      "£": 103,
      "¤": 104,
      "¥": 105,
      "¦": 106,
      "§": 107,
      "¨": 108,
      "©": 109,
      "ª": 110,
      "«": 111,
      "¬": 112,
      "®": 113,
      "¯": 114,
      "°": 115,
      "±": 116,
      "²": 117,
      "³": 118,
      "´": 119,
      "µ": 120,
      "¶": 121,
      "·": 122,
      "¸": 123,
      "¹": 124,
      "º": 125,
      "»": 126,
      "¼": 127,
      "½": 128,
      "¾": 129,
      "¿": 130,
      "Â": 131,
      "Ã": 132,
      "Ä": 133,
      "Å": 134,
      "Æ": 135,
      "Ç": 136,
      "È": 137,
      "É": 138,
      "Ê": 139,
      "Ë": 140,
      "Ì": 141,
      "Í": 142,
      "Î": 143,
      "Ï": 144,
      "Ð": 145,
      "Ñ": 146,
      "Ò": 147,
      "Ó": 148,
      "Ô": 149,
      "Õ": 150,
      "Ö": 151,
      "×": 152,
      "Ø": 153,
      "Ù": 154,
      "Ú": 155,
      "Û": 156,
      "Ü": 157,
      "Þ": 158,
      "ß": 159,
      "à": 160,
      "á": 161,
      "â": 162,
      "ã": 163,
      "ä": 164,
      "å": 165,
      "æ": 166,
      "ç": 167,
      "è": 168,
      "é": 169,
      "ê": 170,
      "ë": 171,
      "ì": 172,
      "í": 173,
      "î": 174,
      "ï": 175,
      "ð": 176,
      "ó": 177,
      "ā": 178,
      "Ă": 179,
      "ĉ": 180,
      "Ğ": 181,
      "ğ": 182,
      "Ġ": 183,
      "Ģ": 184,
      "ģ": 185,
      "Ĥ": 186,
      "ĥ": 187,
      "Ħ": 188,
      "ħ": 189,
      "Ĩ": 190,
      "ĩ": 191,
      "Ī": 192,
      "ī": 193,
      "Ĭ": 194,
      "ĭ": 195,
      "Į": 196,
      "į": 197,
      "İ": 198,
      "ı": 199,
      "Ĳ": 200,
      "ĳ": 201,
      "Ĵ": 202,
      "ĵ": 203,
      "Ķ": 204,
      "ķ": 205,
      "ĸ": 206,
      "Ĺ": 207,
      "ĺ": 208,
      "Ļ": 209,
      "ļ": 210,
      "Ľ": 211,
      "ľ": 212,
      "Ŀ": 213,
      "ŀ": 214,
      "Ł": 215,
      "ł": 216,
      "Ń": 217,
      "ku": 218,
      "an": 219,
      "el": 220,
      "in": 221,
      "Ġn": 222,
      "en": 223,
      "Ġu": 224,
      "ba": 225,
      "th": 226,
      "wa": 227,
      "is": 228,
      "Ġk": 229,
      "la": 230,
      "Ġi": 231,
      "ye": 232,
      "on": 233,
      "Ġe": 234,
      "zi": 235,
      "Ġku": 236,
      "ha": 237,
      "le": 238,
      "yo": 239,
      "ga": 240,
      "Ġa": 241,
      "ya": 242,
      "si": 243,
      "kh": 244,
      "we": 245,
      "lu": 246,
      "lo": 247,
      "ma": 248,
      "Ġuku": 249,
      "ka": 250,
      "ĠI": 251,
      "ph": 252,
      "oku": 253,
      "Ġng": 254,
      "ela": 255,
      "za": 256,
      "li": 257,
      "se": 258,
      "da": 259,
      "un": 260,
      "Ġo": 261,
      "ĠU": 262,
      "ko": 263,
      "Ġkw": 264,
      "di": 265,
      "mb": 266,
      "thi": 267,
      "ele": 268,
      "ze": 269,
      "isa": 270,
      "bo": 271,
      "yi": 272,
      "Ġkun": 273,
      "ban": 274,
      "Ġin": 275,
      "um": 276,
      "to": 277,
      "be": 278,
      "ts": 279,
      "ana": 280,
      "ĠN": 281,
      "kho": 282,
      "es": 283,
      "er": 284,
      "and": 285,
      "ile": 286,
      "ho": 287,
      "Ġwa": 288,
      "ke": 289,
      "zin": 290,
      "Ġba": 291,
      "Ġkwa": 292,
      "Ġukuba": 293,
      "Ġkwi": 294,
      "Ġye": 295,
      "âĢ": 296,
      "mi": 297,
      "bu": 298,
      "Ġs": 299,
      "tha": 300,
      "eni": 301,
      "pha": 302,
      "Ġna": 303,
      "Ġkunye": 304,
      "Ġya": 305,
      "ĠK": 306,
      "Ġne": 307,
      "eli": 308,
      "elo": 309,
      "ulu": 310,
      "isi": 311,
      "eng": 312,
      "zo": 313,
      "hla": 314,
      "ona": 315,
      "the": 316,
      "ben": 317,
      "fun": 318,
      "Ġum": 319,
      "Ġyo": 320,
      "Ġnga": 321,
      "ang": 322,
      "ini": 323,
      "va": 324,
      "tu": 325,
      "ĠA": 326,
      "ta": 327,
      "ti": 328,
      "ise": 329,
      "ing": 330,
      "om": 331,
      "hi": 332,
      "xa": 333,
      "ĠIsi": 334,
      "iso": 335,
      "Ġezi": 336,
      "kan": 337,
      "Ġngoku": 338,
      "ĠS": 339,
      "wo": 340,
      "Ġ(": 341,
      "ca": 342,
      "ng": 343,
      "ane": 344,
      "wu": 345,
      "sa": 346,
      "Ġen": 347,
      "ra": 348,
      "Ġaba": 349,
      "te": 350,
      "re": 351,
      "Ġl": 352,
      "Ġka": 353,
      "de": 354,
      "wen": 355,
      "qa": 356,
      "khe": 357,
      "anga": 358,
      "ileyo": 359,
      "ro": 360,
      "Ġkwe": 361,
      "ĠE": 362,
      "thu": 363,
      "Ġlo": 364,
      "do": 365,
      "hu": 366,
      "Ġy": 367,
      "Ġm": 368,
      "Ġsi": 369,
      "Ġze": 370,
      "seben": 371,
      "Ġz": 372,
      "qu": 373,
      "Ġkwaye": 374,
      "Ġzi": 375,
      "mbi": 376,
      "Ġnj": 377,
      "ĠUku": 378,
      "ri": 379,
      "ani": 380,
      "ĠB": 381,
      "onke": 382,
      "ce": 383,
      "lela": 384,
      "Ġama": 385,
      "ty": 386,
      "phe": 387,
      "Ġyoku": 388,
      "Ġnge": 389,
      "Ġle": 390,
      "ĠM": 391,
      "dla": 392,
      "Ġngo": 393,
      "mba": 394,
      "kwa": 395,
      "..": 396,
      "ĠC": 397,
      "ĠâĢ": 398,
      "Ġezin": 399,
      "mp": 400,
      "he": 401,
      "tho": 402,
      "kha": 403,
      "khulu": 404,
      "Ġwe": 405,
      "ong": 406,
      "fa": 407,
      "ĠL": 408,
      "kanye": 409,
      "lwa": 410,
      "Ġno": 411,
      "ina": 412,
      "ĠNg": 413,
      "us": 414,
      "ki": 415,
      "Ġaban": 416,
      "Ġbe": 417,
      "Ġko": 418,
      "Ġza": 419,
      "Ġun": 420,
      "Ġokanye": 421,
      "ĠY": 422,
      "dlela": 423,
      "ĠP": 424,
      "Ġii": 425,
      "hl": 426,
      "me": 427,
      "xo": 428,
      "kileyo": 429,
      "iswa": 430,
      "dwa": 431,
      "or": 432,
      "bi": 433,
      "gq": 434,
      "fum": 435,
      "phu": 436,
      "Ġw": 437,
      "lung": 438,
      "Ġiin": 439,
      "ĠIn": 440,
      "Ġisi": 441,
      "Ġnoku": 442,
      "esha": 443,
      "Ġla": 444,
      "Ġem": 445,
      "tsha": 446,
      "ĠW": 447,
      "ci": 448,
      "ant": 449,
      "Ġeli": 450,
      "bon": 451,
      "Ġli": 452,
      "ĠO": 453,
      "man": 454,
      "tsh": 455,
      "kwen": 456,
      "ĠT": 457,
      "wi": 458,
      "dawo": 459,
      "mo": 460,
      "xesha": 461,
      "Ġkuba": 462,
      "ene": 463,
      "phi": 464,
      "elwa": 465,
      "Ġndi": 466,
      "weni": 467,
      "ula": 468,
      "co": 469,
      "hlo": 470,
      "pho": 471,
      "pa": 472,
      "Ġizi": 473,
      "fi": 474,
      "Ġma": 475,
      "inga": 476,
      "Ġke": 477,
      "Ġoku": 478,
      "inzi": 479,
      "ent": 480,
      "phez": 481,
      "bha": 482,
      "po": 483,
      "bona": 484,
      "ĠâĢľ": 485,
      "bh": 486,
      "nga": 487,
      "Ġesi": 488,
      "gu": 489,
      "ĠKu": 490,
      "mn": 491,
      "âĢĿ": 492,
      "ter": 493,
      "ch": 494,
      "hlu": 495,
      "oni": 496,
      "anda": 497,
      "elela": 498,
      "du": 499,
      "Ġnjeng": 500,
      "vi": 501,
      "ĠF": 502,
      "Ġimi": 503,
      "Ġ-": 504,
      "Ġeku": 505,
      "ar": 506,
      "sh": 507,
      "ine": 508,
      "okuba": 509,
      "qo": 510,
      "Ġsa": 511,
      "int": 512,
      "ja": 513,
      "khu": 514,
      "eka": 515,
      "phaka": 516,
      "oko": 517,
      "andla": 518,
      "sebenz": 519,
      "su": 520,
      "gqi": 521,
      "ĠD": 522,
      "zinto": 523,
      "eho": 524,
      "zwe": 525,
      "ve": 526,
      "Ġngen": 527,
      "elele": 528,
      "so": 529,
      "ena": 530,
      "Ġloku": 531,
      "ish": 532,
      "Ġxa": 533,
      "sin": 534,
      "...": 535,
      "ehova": 536,
      "Ġse": 537,
      "vu": 538,
      "Ġel": 539,
      "ĠH": 540,
      "Ġlu": 541,
      "Ġ\"": 542,
      "fu": 543,
      "phambi": 544,
      "antsi": 545,
      "Yehova": 546,
      "al": 547,
      "Ġzoku": 548,
      "elwe": 549,
      "hixo": 550,
      "gama": 551,
      "Ġlwe": 552,
      "bun": 553,
      "ntu": 554,
      "ge": 555,
      "tya": 556,
      "Ġkakhulu": 557,
      "hle": 558,
      "wana": 559,
      "Ġkodwa": 560,
      "Thixo": 561,
      "ĠG": 562,
      "Ġolu": 563,
      "yaka": 564,
      "cha": 565,
      "gc": 566,
      "enza": 567,
      "vel": 568,
      "phand": 569,
      "qala": 570,
      "Ġb": 571,
      "ck": 572,
      "funa": 573,
      "Ġzo": 574,
      "kun": 575,
      "enz": 576,
      "funeka": 577,
      "ono": 578,
      "xho": 579,
      "Ġyi": 580,
      "wan": 581,
      "ĠR": 582,
      "Ġ/": 583,
      "onga": 584,
      "tion": 585,
      "fumana": 586,
      "kile": 587,
      "ji": 588,
      "mbo": 589,
      "cu": 590,
      "Ġabantu": 591,
      "Ġukuze": 592,
      "kqu": 593,
      "st": 594,
      "lisa": 595,
      "dlu": 596,
      "am": 597,
      "ol": 598,
      "phezulu": 599,
      "phum": 600,
      "hlaba": 601,
      "kwe": 602,
      "theng": 603,
      "bantu": 604,
      "ĠUm": 605,
      "âĢĻ": 606,
      "yu": 607,
      "Ġuya": 608,
      "kwazi": 609,
      "je": 610,
      "Ġngu": 611,
      "sebenzi": 612,
      "Ġyakho": 613,
      "phakathi": 614,
      "Ma": 615,
      "il": 616,
      "lawu": 617,
      "phela": 618,
      "qin": 619,
      "zu": 620,
      "andi": 621,
      "Ġnto": 622,
      "Ġubu": 623,
      "weyo": 624,
      "ĠZ": 625,
      "Ġim": 626,
      "kqubo": 627,
      "land": 628,
      "yan": 629,
      "iseben": 630,
      "Ġis": 631,
      "kela": 632,
      "fo": 633,
      "thanda": 634,
      "fan": 635,
      "fana": 636,
      "phandle": 637,
      "Ġinto": 638,
      "mali": 639,
      "elekileyo": 640,
      "dlalo": 641,
      "ĠNga": 642,
      "go": 643,
      "Si": 644,
      "ni": 645,
      "Ġc": 646,
      "qhu": 647,
      "bini": 648,
      "kwenza": 649,
      "Ġkwin": 650,
      "Ġaku": 651,
      "thetha": 652,
      "yana": 653,
      "der": 654,
      "Ġlwa": 655,
      "leni": 656,
      "Ġp": 657,
      "=\"": 658,
      "qon": 659,
      "ĠMa": 660,
      "one": 661,
      "jalo": 662,
      "Ġkum": 663,
      "ĠWa": 664,
      "lelo": 665,
      "enze": 666,
      "hlala": 667,
      "mandla": 668,
      "tyenz": 669,
      "hlobo": 670,
      "hamba": 671,
      "Ġban": 672,
      "et": 673,
      "na": 674,
      "sebenzisa": 675,
      "elelo": 676,
      "gi": 677,
      "Ġwen": 678,
      "Ġes": 679,
      "bho": 680,
      "Ġkufuneka": 681,
      "qh": 682,
      "kani": 683,
      "Ġkoku": 684,
      "lule": 685,
      "mbu": 686,
      "kelo": 687,
      "qinise": 688,
      "Ġkuku": 689,
      "bonaka": 690,
      "phantsi": 691,
      "cin": 692,
      "ange": 693,
      "bhu": 694,
      "phambili": 695,
      "tsho": 696,
      "sebenza": 697,
      "ur": 698,
      "Ġemva": 699,
      ".âĢĿ": 700,
      "elana": 701,
      "kele": 702,
      "Ġf": 703,
      "Ġnje": 704,
      "hayi": 705,
      "Ġ|": 706,
      "Ġapho": 707,
      "Ġnd": 708,
      "beka": 709,
      "Ġnom": 710,
      "ĠJ": 711,
      "kon": 712,
      "ĠUkuba": 713,
      "dala": 714,
      "mbe": 715,
      "vum": 716,
      "khi": 717,
      "ango": 718,
      "bhe": 719,
      "min": 720,
      "Ġyase": 721,
      "ĠX": 722,
      "mpa": 723,
      "enzi": 724,
      "Ġizinto": 725,
      "ceda": 726,
      "Ġthe": 727,
      "Ġez": 728,
      "ongo": 729,
      "pe": 730,
      "Ġngenxa": 731,
      "Ġzonke": 732,
      "mva": 733,
      "ling": 734,
      "ĠBa": 735,
      "khona": 736,
      "veliso": 737,
      "uni": 738,
      "Ġof": 739,
      "ĠLe": 740,
      "zwa": 741,
      "lunga": 742,
      "Ġon": 743,
      "ĠIi": 744,
      "zela": 745,
      "twana": 746,
      "Ġaman": 747,
      "ĠNgoku": 748,
      "ĠKwa": 749,
      "Ġngayo": 750,
      "at": 751,
      "ĠSi": 752,
      "doda": 753,
      "rt": 754,
      "qela": 755,
      "Ġwoku": 756,
      "ĠCa": 757,
      "uku": 758,
      "Ġindlela": 759,
      "lin": 760,
      "leyo": 761,
      "Ġeza": 762,
      "esu": 763,
      "Ġbu": 764,
      "xha": 765,
      "pro": 766,
      "Ġzin": 767,
      "khus": 768,
      "tshi": 769,
      "enga": 770,
      "iswe": 771,
      "xhobo": 772,
      "onge": 773,
      "sino": 774,
      "phezu": 775,
      "wele": 776,
      "bala": 777,
      "Ġand": 778,
      "xe": 779,
      "Ġnen": 780,
      "cwa": 781,
      "shi": 782,
      "ĠNdi": 783,
      "thwa": 784,
      "thand": 785,
      "Ġumntu": 786,
      "wule": 787,
      "mnye": 788,
      "fe": 789,
      "Ġyonke": 790,
      "end": 791,
      "Ġwo": 792,
      "vela": 793,
      "Ġukuya": 794,
      "Ġyin": 795,
      "âĢĶ": 796,
      "ry": 797,
      "Ġngaphandle": 798,
      "men": 799,
      "Yesu": 800,
      "Ġiya": 801,
      "kulu": 802,
      "xi": 803,
      "ĠAma": 804,
      "hlan": 805,
      "ver": 806,
      "wano": 807,
      "tshin": 808,
      "yin": 809,
      "oo": 810,
      "Ġnda": 811,
      "bela": 812,
      "setyenz": 813,
      "KU": 814,
      "Ġeng": 815,
      "thetho": 816,
      "ĠV": 817,
      "thuba": 818,
      "zisa": 819,
      "Ġeya": 820,
      "Ġing": 821,
      "ung": 822,
      "ĠKo": 823,
      "beni": 824,
      "Ġyaye": 825,
      "ĠuYehova": 826,
      "ly": 827,
      "bonisa": 828,
      "kisa": 829,
      "suka": 830,
      "Ġ>": 831,
      "tat": 832,
      "Ġngoko": 833,
      "zima": 834,
      "ris": 835,
      "lwazi": 836,
      "biso": 837,
      "sha": 838,
      "kiso": 839,
      "konzo": 840,
      "Ġngum": 841,
      "Ġmalunga": 842,
      "Bhayi": 843,
      "mkani": 844,
      "ĠÂ": 845,
      "In": 846,
      "kumbi": 847,
      "eleleyo": 848,
      "ht": 849,
      "Ġkwii": 850,
      "Ġkuphela": 851,
      "guqu": 852,
      "Ġnama": 853,
      "Ġoko": 854,
      "Ġom": 855,
      "Ġyen": 856,
      "Ġphakathi": 857,
      "ondo": 858,
      "Ġint": 859,
      "too": 860,
      "rh": 861,
      "ĠuM": 862,
      "Ġyakhe": 863,
      "fumane": 864,
      "anethi": 865,
      "ĠAba": 866,
      "umi": 867,
      "khaya": 868,
      "angona": 869,
      "kw": 870,
      "Ġwaye": 871,
      ").": 872,
      "bhile": 873,
      "olo": 874,
      "Ġnaba": 875,
      "lw": 876,
      "Ġni": 877,
      "Ġixesha": 878,
      "nye": 879,
      "AN": 880,
      "fund": 881,
      "funda": 882,
      "diban": 883,
      "yile": 884,
      "Ġbo": 885,
      "Ġben": 886,
      "thile": 887,
      "Ġ'": 888,
      "ĠXa": 889,
      "IS": 890,
      "Ġ...": 891,
      "EL": 892,
      "qi": 893,
      "Ġngama": 894,
      "Ġnee": 895,
      "balule": 896,
      "zinye": 897,
      "Ġkuma": 898,
      "Ġkom": 899,
      "Ġezininzi": 900,
      "eneyo": 901,
      "ĠIsiT": 902,
      "yeli": 903,
      "ika": 904,
      "Ġayi": 905,
      "Ġkukho": 906,
      "loko": 907,
      "meko": 908,
      "thatha": 909,
      "zwi": 910,
      ".+": 911,
      "cinga": 912,
      "hlabathi": 913,
      "Ġunga": 914,
      "ĠIin": 915,
      "bel": 916,
      "id": 917,
      "ĠKodwa": 918,
      "Ġinga": 919,
      "ig": 920,
      "fri": 921,
      "Ġkaku": 922,
      "ĠuThixo": 923,
      "bomi": 924,
      "Ġnjengoko": 925,
      "Ġenga": 926,
      "minyaka": 927,
      "ĠâĢĺ": 928,
      "khon": 929,
      "Ġngom": 930,
      "Ġkan": 931,
      "shu": 932,
      "ul": 933,
      "tra": 934,
      "Ġngokuba": 935,
      "Sa": 936,
      "phin": 937,
      "Ġpo": 938,
      "qe": 939,
      "Ġnjani": 940,
      "Ġsoku": 941,
      "kelela": 942,
      "Ġwathi": 943,
      "zantsi": 944,
      "khawule": 945,
      "mveliso": 946,
      "Bhayibhile": 947,
      "Ġsta": 948,
      "zekelo": 949,
      "hluk": 950,
      "hamb": 951,
      "hlawu": 952,
      "Ġwam": 953,
      "Ġkwisi": 954,
      "fane": 955,
      "Ġto": 956,
      "pi": 957,
      "ted": 958,
      "yanga": 959,
      "Ġey": 960,
      "Ġnezi": 961,
      "Ġwakhe": 962,
      "bani": 963,
      "lis": 964,
      "bonakala": 965,
      "Ġnjenge": 966,
      "jeng": 967,
      "ĠOku": 968,
      "eleyo": 969,
      "khan": 970,
      "Ġdu": 971,
      "intoni": 972,
      "Ġenye": 973,
      "tsa": 974,
      "ĠNgo": 975,
      "dlali": 976,
      "Ġkokuba": 977,
      "ĠNgoko": 978,
      "Ġwakho": 979,
      ",+": 980,
      "daba": 981,
      "Ġkwiin": 982,
      "yama": 983,
      "Ġyokuba": 984,
      "setyenziswa": 985,
      "vo": 986,
      "ĠYa": 987,
      "lungu": 988,
      "gra": 989,
      "mis": 990,
      "ps": 991,
      "kosi": 992,
      "cinci": 993,
      "ĠIzi": 994,
      "Ġkuye": 995,
      "zal": 996,
      "kamp": 997,
      "bhi": 998,
      "Ġ+": 999,
      "ĠQ": 1000,
      "ir": 1001,
      "chi": 1002,
      "Ġiing": 1003,
      "ĠKwi": 1004,
      "Ġindawo": 1005,
      "phumo": 1006,
      "wane": 1007,
      "Ġimali": 1008,
      "dlala": 1009,
      "Ġ<": 1010,
      "ond": 1011,
      "com": 1012,
      "Ġbakhe": 1013,
      "Ġabo": 1014,
      "tic": 1015,
      "elayo": 1016,
      "lawulo": 1017,
      "ziwa": 1018,
      "Ġyesi": 1019,
      "fazi": 1020,
      "Ġdur": 1021,
      "las": 1022,
      "kayo": 1023,
      "res": 1024,
      "tye": 1025,
      "cac": 1026,
      "Ġso": 1027,
      "mbini": 1028,
      "Ġ.": 1029,
      "IN": 1030,
      "qha": 1031,
      "fanelekileyo": 1032,
      "pu": 1033,
      "fanekiso": 1034,
      "ganga": 1035,
      "Ġubun": 1036,
      "cwadi": 1037,
      "Ġibe": 1038,
      "hlukeneyo": 1039,
      "\">": 1040,
      "tyala": 1041,
      "Ġstart": 1042,
      "khawuleza": 1043,
      "khang": 1044,
      "Ġmo": 1045,
      "Ġkakuhle": 1046,
      "ĠCasino": 1047,
      "Ġkuyo": 1048,
      "wang": 1049,
      "enye": 1050,
      "endu": 1051,
      "suku": 1052,
      "xaki": 1053,
      "Ġbonke": 1054,
      "zimba": 1055,
      "ĠâĢĵ": 1056,
      "Ġukun": 1057,
      "Ġde": 1058,
      "pp": 1059,
      "phel": 1060,
      "Ġapha": 1061,
      "yis": 1062,
      "oma": 1063,
      "Ġanga": 1064,
      "qes": 1065,
      "ĠUn": 1066,
      "ad": 1067,
      "gam": 1068,
      "Ġkuya": 1069,
      "yithi": 1070,
      "Ġkh": 1071,
      "Ġneen": 1072,
      "ster": 1073,
      "Ġngexesha": 1074,
      "Ġkoko": 1075,
      "fanele": 1076,
      "pheleleyo": 1077,
      "kampani": 1078,
      "diyo": 1079,
      "van": 1080,
      "Ġkule": 1081,
      "gcina": 1082,
      "Ġbaya": 1083,
      "Ġwase": 1084,
      "Ġuthi": 1085,
      "zini": 1086,
      "ne": 1087,
      "zeka": 1088,
      "theni": 1089,
      "banda": 1090,
      "lelwa": 1091,
      "mfun": 1092,
      "mer": 1093,
      "mini": 1094,
      "ru": 1095,
      "zulu": 1096,
      "Ġan": 1097,
      "Ġmi": 1098,
      "xabiso": 1099,
      "ww": 1100,
      "ishini": 1101,
      "wder": 1102,
      "lwe": 1103,
      "ct": 1104,
      "ĠNgaba": 1105,
      "bang": 1106,
      "zana": 1107,
      "est": 1108,
      "Ġkulo": 1109,
      "hen": 1110,
      "Ġphantsi": 1111,
      "bile": 1112,
      "isebenzi": 1113,
      "qaku": 1114,
      "webhu": 1115,
      "tattoo": 1116,
      "ll": 1117,
      "cala": 1118,
      "ziyo": 1119,
      "EN": 1120,
      "Ġukwenza": 1121,
      "thathu": 1122,
      "ĠAn": 1123,
      "qhelekileyo": 1124,
      "Ġloo": 1125,
      "Ġbabe": 1126,
      "Ġyom": 1127,
      "ran": 1128,
      "ĠPo": 1129,
      "fundi": 1130,
      "rha": 1131,
      "Ġaka": 1132,
      "as": 1133,
      "lala": 1134,
      "lileyo": 1135,
      "ristu": 1136,
      "ywa": 1137,
      "ction": 1138,
      "Mi": 1139,
      "kcu": 1140,
      "ĠIsiS": 1141,
      "ĠIsiK": 1142,
      "elwano": 1143,
      "hlang": 1144,
      "Ġakukho": 1145,
      "Ġobu": 1146,
      "yela": 1147,
      "ew": 1148,
      "enxa": 1149,
      "gqina": 1150,
      "ĠImi": 1151,
      "ree": 1152,
      "tal": 1153,
      "Ġ[": 1154,
      "Da": 1155,
      "Ġyam": 1156,
      "kanga": 1157,
      "usa": 1158,
      "kwi": 1159,
      "wangc": 1160,
      "phepha": 1161,
      "Yu": 1162,
      "Ġung": 1163,
      "),": 1164,
      "mente": 1165,
      "rayeli": 1166,
      "Mo": 1167,
      "yiphi": 1168,
      "Ġemi": 1169,
      "Ġuza": 1170,
      "lele": 1171,
      "frika": 1172,
      "Ġumsebenzi": 1173,
      "lingan": 1174,
      "Ġnam": 1175,
      "Ġukusuka": 1176,
      "zele": 1177,
      "hosa": 1178,
      "Ġnemi": 1179,
      "mpawu": 1180,
      "kis": 1181,
      "Ġzabo": 1182,
      "Ġyethu": 1183,
      "Ġkube": 1184,
      "Ġkwen": 1185,
      "Sirayeli": 1186,
      "ĠYe": 1187,
      "ĠNa": 1188,
      "qana": 1189,
      "Ġelin": 1190,
      "banye": 1191,
      "Ġngaba": 1192,
      "Ġumn": 1193,
      "Ġowa": 1194,
      "Ġd": 1195,
      "Ġiint": 1196,
      "hlanje": 1197,
      "Ġca": 1198,
      "sebenzisi": 1199,
      "Ġili": 1200,
      "Ġnokuba": 1201,
      "ĠIsiC": 1202,
      "Ġkwakhona": 1203,
      "gangatho": 1204,
      "Yo": 1205,
      "ama": 1206,
      "Ġabe": 1207,
      "kazi": 1208,
      "phuma": 1209,
      "line": 1210,
      "per": 1211,
      "wun": 1212,
      "Ġsele": 1213,
      "Ġphambi": 1214,
      "lula": 1215,
      "iseko": 1216,
      "ĠEmva": 1217,
      "dle": 1218,
      "ĠKe": 1219,
      "Ġufuna": 1220,
      "Pa": 1221,
      "Ġngakumbi": 1222,
      "Ġ$": 1223,
      "Ġre": 1224,
      "phila": 1225,
      "Ġwaba": 1226,
      "ino": 1227,
      "ĠRe": 1228,
      "tor": 1229,
      "bisa": 1230,
      "mbulu": 1231,
      "zayo": 1232,
      "Se": 1233,
      "xt": 1234,
      "langa": 1235,
      ",âĢĿ": 1236,
      "thengi": 1237,
      "thum": 1238,
      "Ġnt": 1239,
      "ĠNangona": 1240,
      "Ġkunjalo": 1241,
      "ĠLo": 1242,
      "wimi": 1243,
      "ĠSe": 1244,
      "Ġlakho": 1245,
      "Ġyama": 1246,
      "iselo": 1247,
      "cwangc": 1248,
      "Ġkuthi": 1249,
      "Ġezinye": 1250,
      "Xhosa": 1251,
      "qonda": 1252,
      "Ġiza": 1253,
      "Ġawa": 1254,
      "vidiyo": 1255,
      "Ġda": 1256,
      "ft": 1257,
      "tri": 1258,
      "Ġzakho": 1259,
      "veki": 1260,
      "qhubeka": 1261,
      "ĠuYesu": 1262,
      "gen": 1263,
      "sen": 1264,
      "Ġ,": 1265,
      "ĠCo": 1266,
      "fika": 1267,
      "Ba": 1268,
      "vaka": 1269,
      "ĠDe": 1270,
      "Ġenkulu": 1271,
      "ed": 1272,
      "Ġpowder": 1273,
      "thini": 1274,
      "ON": 1275,
      "intanethi": 1276,
      "mele": 1277,
      "ut": 1278,
      "yona": 1279,
      "UN": 1280,
      "onwa": 1281,
      "chu": 1282,
      "HA": 1283,
      "celo": 1284,
      "sem": 1285,
      "ren": 1286,
      "Ġlesi": 1287,
      "kukho": 1288,
      "Ġomnye": 1289,
      "Ġnesi": 1290,
      "Ġkwama": 1291,
      "gamsh": 1292,
      "Ġngokukhawuleza": 1293,
      "jongo": 1294,
      "dum": 1295,
      "Ġulu": 1296,
      "tywa": 1297,
      "han": 1298,
      "theth": 1299,
      "ere": 1300,
      "Ġziya": 1301,
      "eko": 1302,
      "quka": 1303,
      "enziwe": 1304,
      "Kristu": 1305,
      "lungis": 1306,
      "Ġbaka": 1307,
      "yina": 1308,
      "fanayo": 1309,
      "ĠSa": 1310,
      "kelele": 1311,
      "onyana": 1312,
      "fundo": 1313,
      "thun": 1314,
      "Ġukufumana": 1315,
      "lungileyo": 1316,
      "ss": 1317,
      "sta": 1318,
      "kuba": 1319,
      "loo": 1320,
      "bandakan": 1321,
      "kel": 1322,
      "cinane": 1323,
      "kolo": 1324,
      "sasa": 1325,
      "AB": 1326,
      "Ġumb": 1327,
      "ulumente": 1328,
      "datha": 1329,
      "Ġkwimi": 1330,
      "ĠÂ£": 1331,
      "ĠÐ": 1332,
      "Ġr": 1333,
      "tes": 1334,
      "gca": 1335,
      "sithi": 1336,
      "Ġth": 1337,
      "qanaba": 1338,
      "lawula": 1339,
      "jonga": 1340,
      "tetho": 1341,
      "Ġngendlela": 1342,
      "ĠUM": 1343,
      "lise": 1344,
      "zandla": 1345,
      "bane": 1346,
      "Ġfor": 1347,
      "Ġam": 1348,
      "ano": 1349,
      "Ġphezu": 1350,
      "cedo": 1351,
      ");": 1352,
      "Ġndiya": 1353,
      "kwenene": 1354,
      "bele": 1355,
      "Ġkwezi": 1356,
      "lwini": 1357,
      "alo": 1358,
      "landelayo": 1359,
      "ble": 1360,
      "Ġimp": 1361,
      "Ġbase": 1362,
      "balulekileyo": 1363,
      "Ġkwindawo": 1364,
      "Ġbakho": 1365,
      "onasi": 1366,
      "Ġisa": 1367,
      "Ġkubo": 1368,
      "liwe": 1369,
      "banzi": 1370,
      "shumi": 1371,
      "thengisa": 1372,
      "kisi": 1373,
      "lel": 1374,
      "Ġlika": 1375,
      "ome": 1376,
      "manye": 1377,
      "gaqo": 1378,
      "Ġkhona": 1379,
      "vide": 1380,
      "bhonasi": 1381,
      "Ġkwizi": 1382,
      "ers": 1383,
      "ys": 1384,
      "zelo": 1385,
      "phakam": 1386,
      "lweni": 1387,
      "Ġ&": 1388,
      "Ġabaninzi": 1389,
      "Ġent": 1390,
      "Ġigama": 1391,
      "ĠKwaye": 1392,
      "rd": 1393,
      "kacha": 1394,
      "eleli": 1395,
      "Ġbam": 1396,
      "Ġsiya": 1397,
      "ĠMo": 1398,
      "unda": 1399,
      "lan": 1400,
      "kcukacha": 1401,
      "yango": 1402,
      "ĠEn": 1403,
      "andelo": 1404,
      "Ġasi": 1405,
      "Ġema": 1406,
      "Ġwaza": 1407,
      "Ġyena": 1408,
      "zange": 1409,
      "Ġezahlukeneyo": 1410,
      "gaba": 1411,
      "Ġkwesi": 1412,
      "wuni": 1413,
      "Ġazi": 1414,
      "Ġzen": 1415,
      "hala": 1416,
      "ou": 1417,
      "khusele": 1418,
      "phando": 1419,
      "faka": 1420,
      "Ġlom": 1421,
      "sayithi": 1422,
      "ying": 1423,
      "yeni": 1424,
      "Ġyabo": 1425,
      "isana": 1426,
      "ĠNd": 1427,
      "Ġkwaba": 1428,
      "Ġngokwa": 1429,
      "Ġleyo": 1430,
      "Ġkukuba": 1431,
      "Ġt": 1432,
      "Ġamandla": 1433,
      "engiso": 1434,
      "kca": 1435,
      "khethe": 1436,
      "Ġngeli": 1437,
      "ĠNge": 1438,
      "ĠYi": 1439,
      "oya": 1440,
      "khosi": 1441,
      "sus": 1442,
      "ĠYintoni": 1443,
      "ĠeM": 1444,
      "Ġlakhe": 1445,
      "Ġpa": 1446,
      "Ġ=": 1447,
      "kwenzeka": 1448,
      "ike": 1449,
      "wn": 1450,
      "it": 1451,
      "Ġabanye": 1452,
      "xelo": 1453,
      "ok": 1454,
      "cing": 1455,
      "yaniso": 1456,
      "Ġnase": 1457,
      "manzi": 1458,
      "Ġâ": 1459,
      "ĠIsiN": 1460,
      "qwa": 1461,
      "ĠNjeng": 1462,
      "Ġend": 1463,
      "htt": 1464,
      "OKU": 1465,
      "gwe": 1466,
      "cula": 1467,
      "tshintsha": 1468,
      "ment": 1469,
      "Ġmna": 1470,
      "phuhl": 1471,
      "Ġkuwe": 1472,
      "gun": 1473,
      "tshane": 1474,
      "thando": 1475,
      "Ġkwakhe": 1476,
      "inyaka": 1477,
      "ĠiN": 1478,
      "bum": 1479,
      "dro": 1480,
      "ĠLi": 1481,
      "ven": 1482,
      "thaba": 1483,
      "angoku": 1484,
      "ĠIndlela": 1485,
      "enziwa": 1486,
      "LE": 1487,
      "Ġndlela": 1488,
      "khutha": 1489,
      "qondo": 1490,
      "khangela": 1491,
      "Ġlase": 1492,
      "eb": 1493,
      "ĠuN": 1494,
      "qeqes": 1495,
      "Ġwesi": 1496,
      "Ġwom": 1497,
      "dwe": 1498,
      "TH": 1499,
      "coko": 1500,
      "phula": 1501,
      "anisa": 1502,
      "ĠZi": 1503,
      "zathu": 1504,
      "thelo": 1505,
      "Ġzethu": 1506,
      "ces": 1507,
      "dolo": 1508,
      "isetyenz": 1509,
      "Ġas": 1510,
      "dia": 1511,
      "mntu": 1512,
      "vavan": 1513,
      "zama": 1514,
      "khiwo": 1515,
      "khetha": 1516,
      "An": 1517,
      "ms": 1518,
      "Ġunoku": 1519,
      "jong": 1520,
      "Ġube": 1521,
      "Ġwonke": 1522,
      "lum": 1523,
      "fowuni": 1524,
      "futshane": 1525,
      "gqibela": 1526,
      "bantwana": 1527,
      "phinda": 1528,
      "endulo": 1529,
      "Ġezifana": 1530,
      "liziyo": 1531,
      "ĠKuba": 1532,
      "Ġyaba": 1533,
      "tshu": 1534,
      "AD": 1535,
      "Ġentsha": 1536,
      "bizwa": 1537,
      "Zi": 1538,
      "gle": 1539,
      "Ġwena": 1540,
      "ĠNo": 1541,
      "khanya": 1542,
      "Ġebu": 1543,
      "Ġubomi": 1544,
      "khula": 1545,
      "Li": 1546,
      "vumela": 1547,
      "gx": 1548,
      "lobo": 1549,
      "Ar": 1550,
      "ĠSlo": 1551,
      "sho": 1552,
      "Ġh": 1553,
      "enzeka": 1554,
      "Ġha": 1555,
      "jikele": 1556,
      "Ġnabo": 1557,
      "Ġway": 1558,
      "bali": 1559,
      "qwen": 1560,
      "lenye": 1561,
      "moto": 1562,
      "fumaneka": 1563,
      "bhala": 1564,
      "isiweyo": 1565,
      "Ġkwee": 1566,
      "lungisa": 1567,
      "kra": 1568,
      "kalo": 1569,
      "cam": 1570,
      "mpahla": 1571,
      "anye": 1572,
      "themba": 1573,
      "ĠHa": 1574,
      "tsuku": 1575,
      "ĠNG": 1576,
      "ced": 1577,
      "fono": 1578,
      "thenga": 1579,
      "Ðµ": 1580,
      "ĠIN": 1581,
      "âĢ¦": 1582,
      "cid": 1583,
      "Ġlonke": 1584,
      "Ġngokwe": 1585,
      "os": 1586,
      "phefum": 1587,
      "Ca": 1588,
      "lahle": 1589,
      "bangela": 1590,
      "Ġezinga": 1591,
      "isebenzisa": 1592,
      "fayile": 1593,
      "ĠLa": 1594,
      "son": 1595,
      "pan": 1596,
      "ĠMe": 1597,
      "lind": 1598,
      "Ġyee": 1599,
      "xholo": 1600,
      "ic": 1601,
      "Ġkwabo": 1602,
      "qinisekisa": 1603,
      "ting": 1604,
      "thela": 1605,
      "Ġinkqubo": 1606,
      "ld": 1607,
      "rin": 1608,
      "ĠIng": 1609,
      "mu": 1610,
      "bandakanya": 1611,
      "Ġphambili": 1612,
      "Ġene": 1613,
      "ses": 1614,
      "hina": 1615,
      "ĠAfrika": 1616,
      "ako": 1617,
      "Ġimidlalo": 1618,
      "jo": 1619,
      "Ġkuzo": 1620,
      "lwan": 1621,
      "cal": 1622,
      "Ġkwaku": 1623,
      "dlulileyo": 1624,
      "LA": 1625,
      "kelwe": 1626,
      "yise": 1627,
      "lack": 1628,
      "Ra": 1629,
      "Ġnaye": 1630,
      "kxa": 1631,
      "Ġulwazi": 1632,
      "Ġuyi": 1633,
      "enge": 1634,
      "xibel": 1635,
      "ĠThe": 1636,
      "mbalwa": 1637,
      "hlabeni": 1638,
      "Ġezimbini": 1639,
      "Ġuze": 1640,
      "ĠkaYehova": 1641,
      "ĠTo": 1642,
      "ĠEzi": 1643,
      "manga": 1644,
      "Ġsin": 1645,
      "Ġngeen": 1646,
      "Ġnobu": 1647,
      "liswa": 1648,
      "ĠNe": 1649,
      "rhulumente": 1650,
      "xeko": 1651,
      "zalwana": 1652,
      "cho": 1653,
      "Lu": 1654,
      "waka": 1655,
      "Ġuye": 1656,
      "yisa": 1657,
      "Ġ{": 1658,
      "Ġuma": 1659,
      "tshini": 1660,
      "La": 1661,
      "liso": 1662,
      "jek": 1663,
      "Ġg": 1664,
      "ĠUKU": 1665,
      "ĠBon": 1666,
      "vula": 1667,
      "khatha": 1668,
      "bone": 1669,
      "Ð°": 1670,
      "zel": 1671,
      "ĠEku": 1672,
      "Ġndawo": 1673,
      "ĠFa": 1674,
      "rk": 1675,
      "phumelela": 1676,
      "sase": 1677,
      "themb": 1678,
      "Ġzama": 1679,
      "mon": 1680,
      "gumbi": 1681,
      "buzo": 1682,
      "kr": 1683,
      "thele": 1684,
      "//": 1685,
      "ff": 1686,
      "fikelela": 1687,
      "thumela": 1688,
      "ĠKukho": 1689,
      "dibanisa": 1690,
      "yathelo": 1691,
      "Ġpro": 1692,
      "Ġ}": 1693,
      "Ka": 1694,
      "://": 1695,
      "khoyo": 1696,
      "inye": 1697,
      "sini": 1698,
      "Ngqina": 1699,
      "hlanu": 1700,
      "lang": 1701,
      "no": 1702,
      "kelwa": 1703,
      "Ġeyi": 1704,
      "onyaka": 1705,
      "luntu": 1706,
      "xalenye": 1707,
      "ciph": 1708,
      "Ġngesi": 1709,
      "Me": 1710,
      "Ġnamhlanje": 1711,
      "gamshelana": 1712,
      "hleli": 1713,
      "SA": 1714,
      "yenza": 1715,
      "Ġezo": 1716,
      "ĠUni": 1717,
      "Ġonke": 1718,
      "elel": 1719,
      "Ġnayiphi": 1720,
      "Ġyinto": 1721,
      "oogle": 1722,
      "ĠKun": 1723,
      "Ġkanye": 1724,
      "xu": 1725,
      "ingu": 1726,
      "lwanyana": 1727,
      "candelo": 1728,
      "Ġnges": 1729,
      "jekthi": 1730,
      "ort": 1731,
      "xh": 1732,
      "Ha": 1733,
      "Ġnangona": 1734,
      "elweyo": 1735,
      "susela": 1736,
      "Ġase": 1737,
      "Ġkweli": 1738,
      "tsapho": 1739,
      "Ġzom": 1740,
      "uto": 1741,
      "Ġzase": 1742,
      "ĠPro": 1743,
      "Ġntoni": 1744,
      "Ġiindlela": 1745,
      "ZI": 1746,
      "Ġco": 1747,
      "Ġzee": 1748,
      "mpi": 1749,
      "bhola": 1750,
      "Ġsase": 1751,
      "'s": 1752,
      "SI": 1753,
      "ĠIs": 1754,
      "phawu": 1755,
      "Ġukwa": 1756,
      "Ġebe": 1757,
      "und": 1758,
      "Ġyayo": 1759,
      "Ġyezi": 1760,
      "lwimi": 1761,
      "Ġtattoo": 1762,
      "phatha": 1763,
      "Ng": 1764,
      "Ġsisi": 1765,
      "chaza": 1766,
      "qinisekileyo": 1767,
      "velisa": 1768,
      "Ġyayi": 1769,
      "Ġkwakho": 1770,
      "cebo": 1771,
      "dalo": 1772,
      "onal": 1773,
      "Ġzakhe": 1774,
      "Ġawu": 1775,
      "Ġabantwana": 1776,
      "mbululo": 1777,
      "https": 1778,
      "ĠâĢ¢": 1779,
      "moya": 1780,
      "Ġuthe": 1781,
      "cela": 1782,
      "ĠEli": 1783,
      "bula": 1784,
      "Ġyokuqala": 1785,
      "cwangciso": 1786,
      "Ġlula": 1787,
      "Ġuzi": 1788,
      "mela": 1789,
      "gazi": 1790,
      "Ġong": 1791,
      "hlawumbi": 1792,
      "Yuda": 1793,
      "Ġkonke": 1794,
      "Ġunyana": 1795,
      "ord": 1796,
      "ĠNdiya": 1797,
      "ĠUnga": 1798,
      "gqibo": 1799,
      "Ġizixhobo": 1800,
      "Ġngokupheleleyo": 1801,
      "wanga": 1802,
      "Ġkuka": 1803,
      "Ġezint": 1804,
      "posi": 1805,
      "zali": 1806,
      "eri": 1807,
      "mvu": 1808,
      "Ġnezinye": 1809,
      "yen": 1810,
      "log": 1811,
      "ole": 1812,
      "yalelo": 1813,
      "Ġumdlalo": 1814,
      "ĠNgenxa": 1815,
      ".âĢĻ": 1816,
      "lic": 1817,
      "MA": 1818,
      "wel": 1819,
      "Ġngaphambi": 1820,
      "mbula": 1821,
      "ĠWathi": 1822,
      "gidi": 1823,
      "ĠKa": 1824,
      "ĠPa": 1825,
      "Ġlwen": 1826,
      "Ġngemi": 1827,
      "EK": 1828,
      "kxaso": 1829,
      "Ġngqo": 1830,
      "kunye": 1831,
      "Ġ*": 1832,
      "lini": 1833,
      "ĠUya": 1834,
      "Ġelide": 1835,
      "ĠIsiA": 1836,
      "mpu": 1837,
      "khawun": 1838,
      "Yi": 1839,
      "ongeza": 1840,
      "gesi": 1841,
      "era": 1842,
      "thombo": 1843,
      "Ġukuzi": 1844,
      "tyi": 1845,
      "thwe": 1846,
      "isombululo": 1847,
      "Ġngaphezu": 1848,
      "entla": 1849,
      "khusela": 1850,
      "fundisa": 1851,
      "DA": 1852,
      "leka": 1853,
      "Ġngaphakathi": 1854,
      "sia": 1855,
      "Ġbethu": 1856,
      "shishini": 1857,
      "khawunti": 1858,
      "Ge": 1859,
      "gcin": 1860,
      "etro": 1861,
      "lish": 1862,
      "bhan": 1863,
      "Ġuba": 1864,
      "tshilo": 1865,
      "Ġkunga": 1866,
      "meli": 1867,
      "mbali": 1868,
      "XO": 1869,
      "Ġsinga": 1870,
      "webhusayithi": 1871,
      "iseka": 1872,
      "ili": 1873,
      "rl": 1874,
      "Ġizin": 1875,
      "Te": 1876,
      "Ġesin": 1877,
      "Ga": 1878,
      "rg": 1879,
      "rea": 1880,
      "Ġkuni": 1881,
      "Ġwama": 1882,
      "YE": 1883,
      "Ġxesha": 1884,
      "gcisa": 1885,
      "ĠUbu": 1886,
      "Fa": 1887,
      "cy": 1888,
      "misa": 1889,
      "org": 1890,
      "indi": 1891,
      "kholo": 1892,
      "ĠAkukho": 1893,
      "Ġlowo": 1894,
      "ĠSta": 1895,
      "Ġonline": 1896,
      "ĠBe": 1897,
      "ress": 1898,
      "nolo": 1899,
      "andle": 1900,
      "ding": 1901,
      "hlazi": 1902,
      "ĠBlack": 1903,
      "okwenzeka": 1904,
      "qho": 1905,
      "thethweni": 1906,
      "Ð¸": 1907,
      "WA": 1908,
      "hlanga": 1909,
      "xhome": 1910,
      "www": 1911,
      "Ġnayo": 1912,
      "phend": 1913,
      "kanani": 1914,
      "cro": 1915,
      "Ġese": 1916,
      "ELA": 1917,
      "jwa": 1918,
      "ungu": 1919,
      "Ġemhlabeni": 1920,
      "buza": 1921,
      "indo": 1922,
      "hagamshelana": 1923,
      "misebenzi": 1924,
      "Ġdi": 1925,
      "bing": 1926,
      "shiya": 1927,
      "dini": 1928,
      "Ġendi": 1929,
      "Ġiz": 1930,
      "kelayo": 1931,
      "xelela": 1932,
      "phucula": 1933,
      "ĠuA": 1934,
      "Ġaye": 1935,
      "Ġkween": 1936,
      "Ġngaphezulu": 1937,
      "lide": 1938,
      "Ja": 1939,
      "cono": 1940,
      "Davide": 1941,
      "mbuzo": 1942,
      "xhomeke": 1943,
      "hoqo": 1944,
      "khasino": 1945,
      "Le": 1946,
      "Ġkwiindawo": 1947,
      "Ġnes": 1948,
      "ont": 1949,
      "lungele": 1950,
      "jack": 1951,
      "Ġbabo": 1952,
      "rike": 1953,
      "wulo": 1954,
      "Ġamaninzi": 1955,
      "ciphisa": 1956,
      "long": 1957,
      "Ġzinto": 1958,
      "ĠSo": 1959,
      "ĠUkuze": 1960,
      "ngena": 1961,
      "Ġsom": 1962,
      "Google": 1963,
      "Ġok": 1964,
      "So": 1965,
      "layo": 1966,
      "ĠAbantu": 1967,
      "ws": 1968,
      "ot": 1969,
      "phendula": 1970,
      "che": 1971,
      "wini": 1972,
      "isebenza": 1973,
      "elanga": 1974,
      "gram": 1975,
      "Ġnjalo": 1976,
      "Ġimisebenzi": 1977,
      "hlaza": 1978,
      "Int": 1979,
      "Ġmobile": 1980,
      "bonelela": 1981,
      "Ġiminyaka": 1982,
      "gena": 1983,
      "ĠeN": 1984,
      "omdla": 1985,
      "enzo": 1986,
      "Ġkunge": 1987,
      "jani": 1988,
      "yuka": 1989,
      "dy": 1990,
      "sel": 1991,
      "bra": 1992,
      "Ġabadlali": 1993,
      "phathi": 1994,
      "qhuba": 1995,
      "ento": 1996,
      "ĠTra": 1997,
      "Ġnanga": 1998,
      "xhe": 1999,
      "Ġesithi": 2000,
      "Ġkalo": 2001,
      "Ġonga": 2002,
      "Ġph": 2003,
      "kiswa": 2004,
      "lungelo": 2005,
      "okuqala": 2006,
      "Ġwethu": 2007,
      "Ġoo": 2008,
      "SE": 2009,
      "tter": 2010,
      "Ġiqela": 2011,
      "yani": 2012,
      "Ġandi": 2013,
      "Ġukumkani": 2014,
      "Ġmfono": 2015,
      "keli": 2016,
      "Ġdo": 2017,
      "caka": 2018,
      "liweyo": 2019,
      "qond": 2020,
      ".âĢĶ": 2021,
      "wela": 2022,
      "Ġusebenzisa": 2023,
      "rom": 2024,
      "esi": 2025,
      "ĠkaThixo": 2026,
      "mbazana": 2027,
      "Ġobun": 2028,
      "Ġamaxesha": 2029,
      "Ġî": 2030,
      "ight": 2031,
      "Ġzika": 2032,
      "Ġrhoqo": 2033,
      "xolo": 2034,
      "isela": 2035,
      "Ġ#": 2036,
      "hluko": 2037,
      "Ġphezulu": 2038,
      "uba": 2039,
      "Ġlama": 2040,
      "khuseleko": 2041,
      "tshwa": 2042,
      "hlwa": 2043,
      "mbono": 2044,
      "hambisa": 2045,
      "qaleni": 2046,
      "mbane": 2047,
      "engu": 2048,
      "lisi": 2049,
      "xhen": 2050,
      "welo": 2051,
      "Ġnaku": 2052,
      "YO": 2053,
      "andu": 2054,
      "Ġme": 2055,
      "zon": 2056,
      "ĻŁ": 2057,
      "ĠîĻŁ": 2058,
      "zithi": 2059,
      "tathu": 2060,
      "Ġngathi": 2061,
      "bene": 2062,
      "qwalas": 2063,
      "ĠIing": 2064,
      "ĠNda": 2065,
      "Re": 2066,
      "midlalo": 2067,
      "biza": 2068,
      "Ġukusebenza": 2069,
      "Ġidi": 2070,
      "iselwa": 2071,
      "Ġbaye": 2072,
      "Ġif": 2073,
      "gas": 2074,
      "aniso": 2075,
      "lon": 2076,
      "khethekileyo": 2077,
      "sis": 2078,
      "sele": 2079,
      "daweni": 2080,
      "beke": 2081,
      "Ph": 2082,
      "Vi": 2083,
      "ĠIBhayibhile": 2084,
      "kweni": 2085,
      "ser": 2086,
      "kcazo": 2087,
      "beleni": 2088,
      "culo": 2089,
      "ĠSlots": 2090,
      "khwe": 2091,
      "liti": 2092,
      "rophu": 2093,
      "ĠOn": 2094,
      "cebiso": 2095,
      "ĠHome": 2096,
      "Ġinoku": 2097,
      "Ġkunokuba": 2098,
      "KH": 2099,
      "yure": 2100,
      "Ġdata": 2101,
      "Ġbanga": 2102,
      "tan": 2103,
      "ĠDi": 2104,
      "uka": 2105,
      "Ġutshilo": 2106,
      "Ġfun": 2107,
      "Ġamabini": 2108,
      "Ġfa": 2109,
      "Ġbathi": 2110,
      "ĠKU": 2111,
      "Ġsakho": 2112,
      "phath": 2113,
      "ente": 2114,
      "didi": 2115,
      "she": 2116,
      "engqondo": 2117,
      "Ġomkhulu": 2118,
      "xhenxe": 2119,
      "Ġebo": 2120,
      "ĠuS": 2121,
      "kundla": 2122,
      "umelelo": 2123,
      "Ġkang": 2124,
      "Ġyeen": 2125,
      "Ġkuwo": 2126,
      "Ġela": 2127,
      "iswano": 2128,
      "IB": 2129,
      "Ġekhaya": 2130,
      "ÑĤ": 2131,
      "ĠIntetho": 2132,
      "for": 2133,
      "Co": 2134,
      "ĠUS": 2135,
      "Ġyoko": 2136,
      "khadi": 2137,
      "gane": 2138,
      "mfuno": 2139,
      "ill": 2140,
      "lile": 2141,
      "sion": 2142,
      "Ġezintsha": 2143,
      "mehlo": 2144,
      "hloko": 2145,
      "lisayo": 2146,
      "hambo": 2147,
      "xulu": 2148,
      "thint": 2149,
      "hlophe": 2150,
      "chane": 2151,
      "qalisa": 2152,
      "He": 2153,
      "tr": 2154,
      "Ġkude": 2155,
      "bisi": 2156,
      "ity": 2157,
      "ther": 2158,
      "Ġzezi": 2159,
      "Ġkwayo": 2160,
      "angela": 2161,
      "ĠYezandla": 2162,
      "kunceda": 2163,
      "mfa": 2164,
      "Ġaya": 2165,
      "Ġbazi": 2166,
      "Uku": 2167,
      "unga": 2168,
      "cel": 2169,
      "Ġuhlobo": 2170,
      "thengisi": 2171,
      "hlale": 2172,
      "Ġwabo": 2173,
      "sibini": 2174,
      "Ndi": 2175,
      "mera": 2176,
      "ĠIsiMa": 2177,
      "thathe": 2178,
      "projekthi": 2179,
      "Ġho": 2180,
      "Ġakho": 2181,
      "dlel": 2182,
      "phakamileyo": 2183,
      "Ġwenza": 2184,
      "\".": 2185,
      "thethe": 2186,
      "qale": 2187,
      "khupha": 2188,
      "lelwe": 2189,
      "Ġmntu": 2190,
      "den": 2191,
      "eshe": 2192,
      "dolophu": 2193,
      "thandwa": 2194,
      "Ġby": 2195,
      "sika": 2196,
      "Ġoyi": 2197,
      "khuthaza": 2198,
      "gqibeleni": 2199,
      "Ġiindawo": 2200,
      "zise": 2201,
      "ware": 2202,
      "Ġukuyi": 2203,
      "chapha": 2204,
      "US": 2205,
      "Ġbaza": 2206,
      "Ġngokwenene": 2207,
      "Ġzesi": 2208,
      "Ġithi": 2209,
      "phaya": 2210,
      "zenze": 2211,
      "Ñģ": 2212,
      "andisa": 2213,
      "landela": 2214,
      "Ġhayi": 2215,
      "Ġyobu": 2216,
      "Ġngokun": 2217,
      "Ġzinga": 2218,
      "gqiba": 2219,
      "Ġnjengo": 2220,
      "Yurophu": 2221,
      "xheba": 2222,
      "droid": 2223,
      "les": 2224,
      "lilo": 2225,
      "Ġta": 2226,
      "Ġithuba": 2227,
      "Ġnjengom": 2228,
      "yini": 2229,
      "gunya": 2230,
      "yili": 2231,
      "ĠIsiP": 2232,
      "unive": 2233,
      "uro": 2234,
      "ĠKutheni": 2235,
      "phondo": 2236,
      "buyis": 2237,
      "lezo": 2238,
      "linganiselo": 2239,
      "Ġngezi": 2240,
      "ĠBlackjack": 2241,
      "cacileyo": 2242,
      "gn": 2243,
      "luhlu": 2244,
      "Ġimihla": 2245,
      "Ġyenza": 2246,
      "jonge": 2247,
      "gqith": 2248,
      "hlawula": 2249,
      "Ġinani": 2250,
      "ber": 2251,
      "Ġsakhe": 2252,
      "rhwe": 2253,
      "Intanethi": 2254,
      "qesha": 2255,
      "ind": 2256,
      "gqib": 2257,
      "LO": 2258,
      "Ġelu": 2259,
      "Ġnganye": 2260,
      "Ġngobu": 2261,
      "ĠuB": 2262,
      "Ġboku": 2263,
      "Ġkuthetha": 2264,
      "yame": 2265,
      "xhasa": 2266,
      "let": 2267,
      "lindele": 2268,
      "mm": 2269,
      "rou": 2270,
      "vun": 2271,
      "fike": 2272,
      "Ġlokuba": 2273,
      "thabatha": 2274,
      "Ġkuyi": 2275,
      "Ġukwazi": 2276,
      "pala": 2277,
      "xaxheba": 2278,
      "zuzu": 2279,
      "hlukileyo": 2280,
      "Ġlwakho": 2281,
      "Ġang": 2282,
      "Ġngalo": 2283,
      "Ġyintoni": 2284,
      "Ġise": 2285,
      "ĠYo": 2286,
      "zulwini": 2287,
      "tyalo": 2288,
      "Ġesa": 2289,
      "andleni": 2290,
      "ous": 2291,
      "ĠTh": 2292,
      "PS": 2293,
      "Ġbaba": 2294,
      "phinde": 2295,
      "Ġamadoda": 2296,
      "dlo": 2297,
      "Na": 2298,
      "univesithi": 2299,
      "Ġiimveliso": 2300,
      "phefumlo": 2301,
      "AS": 2302,
      "ĠPre": 2303,
      "Ġingaba": 2304,
      "Ġukutya": 2305,
      "funde": 2306,
      "Ġsis": 2307,
      "wer": 2308,
      "Ġabafundi": 2309,
      "ĠlesiXhosa": 2310,
      "profe": 2311,
      "mnyama": 2312,
      "ES": 2313,
      "yazi": 2314,
      "ee": 2315,
      "chule": 2316,
      "IM": 2317,
      "onwabisa": 2318,
      "Ġga": 2319,
      "Ġsu": 2320,
      "ganeko": 2321,
      "ks": 2322,
      "Ġkaloku": 2323,
      "pla": 2324,
      "Ġyou": 2325,
      "Ġus": 2326,
      "Ġabanga": 2327,
      "ture": 2328,
      "tali": 2329,
      "ĠQhagamshelana": 2330,
      "tshe": 2331,
      "PH": 2332,
      "khonzi": 2333,
      "Ġnang": 2334,
      "vavanyo": 2335,
      "can": 2336,
      "foto": 2337,
      "thethi": 2338,
      "Ġukususela": 2339,
      "ĠNgu": 2340,
      "Ġji": 2341,
      "Ġkuza": 2342,
      "ishino": 2343,
      "hlali": 2344,
      "weli": 2345,
      "mfuneko": 2346,
      "ĠRa": 2347,
      "cali": 2348,
      "CAD": 2349,
      "simbi": 2350,
      "Ġsika": 2351,
      "Ġidatha": 2352,
      "win": 2353,
      "Ġkwenza": 2354,
      "Ġezinkulu": 2355,
      "kala": 2356,
      "Ġyanga": 2357,
      "ĠTe": 2358,
      "ĠNjengoko": 2359,
      "Ġamanzi": 2360,
      "Ġiye": 2361,
      "ĠIsiB": 2362,
      "Ġwi": 2363,
      "gcwele": 2364,
      "wari": 2365,
      "lem": 2366,
      "ĠBonus": 2367,
      "ĠCha": 2368,
      "Ġnjenga": 2369,
      "khuph": 2370,
      "ĠiBhayibhile": 2371,
      "zer": 2372,
      "hlas": 2373,
      "yoku": 2374,
      "ĠeB": 2375,
      "Ġlen": 2376,
      "gqa": 2377,
      "Ġngamnye": 2378,
      "bhokisi": 2379,
      "Ġeyona": 2380,
      "ĠInt": 2381,
      "Ġkwam": 2382,
      "chwe": 2383,
      "ziwe": 2384,
      "BA": 2385,
      "khulule": 2386,
      "anu": 2387,
      "Ġnawe": 2388,
      "hane": 2389,
      "Ġyekhasino": 2390,
      "ĠBu": 2391,
      "Ama": 2392,
      "Jam": 2393,
      "yelwa": 2394,
      "ley": 2395,
      "ime": 2396,
      "mnandi": 2397,
      "riya": 2398,
      "phume": 2399,
      "gqirha": 2400,
      "ĠBi": 2401,
      "tshintsho": 2402,
      "Uni": 2403,
      "hambelana": 2404,
      "Ġzaba": 2405,
      "polisa": 2406,
      "xibelelwano": 2407,
      "Ta": 2408,
      "::": 2409,
      "phakade": 2410,
      "Ġkubu": 2411,
      "Ġwaya": 2412,
      "nge": 2413,
      "Ġukusebenzisa": 2414,
      "Ġukunga": 2415,
      "Ġkubalule": 2416,
      "Ġngokubanzi": 2417,
      "attoo": 2418,
      "ard": 2419,
      "Pro": 2420,
      "mitha": 2421,
      "keni": 2422,
      "Ġindoda": 2423,
      "tions": 2424,
      "Ġwenze": 2425,
      "Nt": 2426,
      "Pi": 2427,
      "con": 2428,
      "funi": 2429,
      "mpyu": 2430,
      "kumkani": 2431,
      "Ġal": 2432,
      "cebook": 2433,
      "ĠFree": 2434,
      "mv": 2435,
      "Ġezili": 2436,
      "Ġngomhla": 2437,
      "zamo": 2438,
      "ĠDa": 2439,
      "ric": 2440,
      "mpilo": 2441,
      "gy": 2442,
      "od": 2443,
      "qwelo": 2444,
      "camango": 2445,
      "Ġat": 2446,
      "ham": 2447,
      "soloko": 2448,
      "Yer": 2449,
      "khetho": 2450,
      "lar": 2451,
      "Ġkanga": 2452,
      "Ġilizwe": 2453,
      "tive": 2454,
      "Ġmhlawumbi": 2455,
      "Ġelo": 2456,
      "kto": 2457,
      "xin": 2458,
      "Ġaze": 2459,
      "Ġindlu": 2460,
      "Afrika": 2461,
      "qula": 2462,
      "ket": 2463,
      "Ġcom": 2464,
      "mbutho": 2465,
      "Ġikho": 2466,
      "Ġokun": 2467,
      "Ġezintathu": 2468,
      "ĠUK": 2469,
      "tyhi": 2470,
      "lomo": 2471,
      "jiswa": 2472,
      "Ġnzima": 2473,
      "ozi": 2474,
      "sind": 2475,
      "tional": 2476,
      "tshato": 2477,
      "Ã©": 2478,
      "Ġezingama": 2479,
      "Ġiziphumo": 2480,
      "Ġumzekelo": 2481,
      "tshona": 2482,
      "ftware": 2483,
      "kise": 2484,
      "Ġngase": 2485,
      "phaza": 2486,
      "Ġmn": 2487,
      "ral": 2488,
      "Ġana": 2489,
      "iseni": 2490,
      "phulo": 2491,
      "dleko": 2492,
      "dima": 2493,
      "ILE": 2494,
      "YA": 2495,
      "lawuli": 2496,
      "ando": 2497,
      "oli": 2498,
      "bonelelo": 2499,
      "khono": 2500,
      "Ġngokuqinisekileyo": 2501,
      "akhawunti": 2502,
      "ĠkuYehova": 2503,
      "thembe": 2504,
      "kwenkwe": 2505,
      "ininzi": 2506,
      "Ġekubeni": 2507,
      "Ġkung": 2508,
      "phupha": 2509,
      "UM": 2510,
      "lam": 2511,
      "Kha": 2512,
      "Ġukuthi": 2513,
      "kwakha": 2514,
      "taba": 2515,
      "fumene": 2516,
      "dibana": 2517,
      "dio": 2518,
      "ĠIndawo": 2519,
      "Ġjikelele": 2520,
      "',": 2521,
      "ton": 2522,
      "Ġkuqala": 2523,
      "hini": 2524,
      "mahla": 2525,
      "banga": 2526,
      "Ġnakwi": 2527,
      "py": 2528,
      "ongameli": 2529,
      "ĠÂ»": 2530,
      "Ġumthetho": 2531,
      "Ġkunoku": 2532,
      "ĠCom": 2533,
      "Ġukufunda": 2534,
      "ĠMar": 2535,
      "Ġngee": 2536,
      "ĠKwakhona": 2537,
      "hlungu": 2538,
      "Ġneeng": 2539,
      "yalezo": 2540,
      "sapho": 2541,
      "khun": 2542,
      "tele": 2543,
      "hambe": 2544,
      "Ġumzimba": 2545,
      "shayina": 2546,
      "ĠPost": 2547,
      "ziphi": 2548,
      "Ġonoku": 2549,
      "swa": 2550,
      "Ġar": 2551,
      "chitha": 2552,
      "No": 2553,
      "umkani": 2554,
      "khamera": 2555,
      "GIS": 2556,
      "qabane": 2557,
      "cial": 2558,
      "ishishini": 2559,
      "mbeni": 2560,
      "bonakalayo": 2561,
      "igh": 2562,
      "Ġendaweni": 2563,
      "Funda": 2564,
      "thiwe": 2565,
      "Ġngabantu": 2566,
      "Chi": 2567,
      "cwele": 2568,
      "lumko": 2569,
      "endawo": 2570,
      "khokelo": 2571,
      "ĠYaye": 2572,
      "Ġkwel": 2573,
      "vuma": 2574,
      "puma": 2575,
      "Ġefanelekileyo": 2576,
      "ĠEsi": 2577,
      "of": 2578,
      "amandla": 2579,
      "usalem": 2580,
      "phucu": 2581,
      "Ġelinye": 2582,
      "Ġiintlobo": 2583,
      "phy": 2584,
      "bonwa": 2585,
      "thandayo": 2586,
      "xhomekeke": 2587,
      "Ġine": 2588,
      "hlangan": 2589,
      "Ġuluhlu": 2590,
      "Ġv": 2591,
      "ler": 2592,
      "Ġevela": 2593,
      "Ġkuquka": 2594,
      "ĠUYehova": 2595,
      "thengiswa": 2596,
      "Ġethile": 2597,
      "posit": 2598,
      "zonwabisa": 2599,
      "ĠIindaba": 2600,
      "file": 2601,
      "xulum": 2602,
      "Ġnathi": 2603,
      "ĠEwe": 2604,
      "Ġlwee": 2605,
      "Ġezine": 2606,
      "ywe": 2607,
      "Th": 2608,
      "Wa": 2609,
      "Ġemn": 2610,
      "ĠuMa": 2611,
      "cwe": 2612,
      "ukumkani": 2613,
      "xhasi": 2614,
      "tombazana": 2615,
      "antya": 2616,
      "Ġolun": 2617,
      "dinga": 2618,
      "Ġngokuthi": 2619,
      "Di": 2620,
      "lizwe": 2621,
      "bhin": 2622,
      "sterone": 2623,
      "zenzekelayo": 2624,
      "jini": 2625,
      "Ġkwenzeka": 2626,
      "Ġkwemi": 2627,
      "Ġtha": 2628,
      "ron": 2629,
      "share": 2630,
      "Ġsiza": 2631,
      "yisi": 2632,
      "zelwa": 2633,
      "Ġiimpawu": 2634,
      "Ġnabanye": 2635,
      "Ġzobu": 2636,
      "Ġumhlaba": 2637,
      "khangele": 2638,
      "Ġva": 2639,
      "Ġathi": 2640,
      "yste": 2641,
      "komo": 2642,
      "rans": 2643,
      "phumelele": 2644,
      "Ġfunction": 2645,
      "Jamani": 2646,
      "Ġnabantu": 2647,
      "Ġlobu": 2648,
      "Ġakun": 2649,
      "cimbi": 2650,
      "khonk": 2651,
      "fin": 2652,
      "vule": 2653,
      "Ġimpendulo": 2654,
      "pr": 2655,
      "Ġwazi": 2656,
      "zuzo": 2657,
      "olezwe": 2658,
      "Ġte": 2659,
      "ĠHe": 2660,
      "Gen": 2661,
      "ĠUk": 2662,
      "Ġngokusebenzisa": 2663,
      "lungile": 2664,
      "langaniso": 2665,
      "hlabathini": 2666,
      "longwane": 2667,
      "mpendulo": 2668,
      "antse": 2669,
      "vume": 2670,
      "lasi": 2671,
      "Mzantsi": 2672,
      "undo": 2673,
      "Ġababe": 2674,
      "ght": 2675,
      "Ġali": 2676,
      "Ġnan": 2677,
      "Ġukudlala": 2678,
      "Ġbesi": 2679,
      "get": 2680,
      "site": 2681,
      "pozithi": 2682,
      "Yerusalem": 2683,
      "kholelwa": 2684,
      "phele": 2685,
      "tsholongwane": 2686,
      "zalwa": 2687,
      "wendwe": 2688,
      "Lo": 2689,
      "antoni": 2690,
      "zweni": 2691,
      "umba": 2692,
      "ĠLu": 2693,
      "tyo": 2694,
      "ĠNew": 2695,
      "sindo": 2696,
      "andela": 2697,
      "Ġefanayo": 2698,
      "bhekis": 2699,
      "Ġngelixa": 2700,
      "Ġhlobo": 2701,
      "Ġumfazi": 2702,
      "Ġiindaba": 2703,
      "qoqo": 2704,
      "Ġengama": 2705,
      "mbona": 2706,
      "bhenge": 2707,
      "sond": 2708,
      "Ġngokunga": 2709,
      "shuma": 2710,
      "Ġufumane": 2711,
      "khonza": 2712,
      "ist": 2713,
      "ingqi": 2714,
      "Ġezimbalwa": 2715,
      "mpe": 2716,
      "fake": 2717,
      "Ġsokuba": 2718,
      "ĠUbun": 2719,
      "chweph": 2720,
      "zala": 2721,
      "WE": 2722,
      "Ġhttps": 2723,
      "yam": 2724,
      "bandla": 2725,
      "Ku": 2726,
      "ishi": 2727,
      "__": 2728,
      "Ġcon": 2729,
      "yl": 2730,
      "qulo": 2731,
      "yawo": 2732,
      "Ġlokuqala": 2733,
      "zelelo": 2734,
      "Ġumdla": 2735,
      "leko": 2736,
      "jw": 2737,
      "GA": 2738,
      "bulala": 2739,
      "qonga": 2740,
      "Ġukusetyenziswa": 2741,
      "mthetho": 2742,
      "IP": 2743,
      "landeli": 2744,
      "Ġbuka": 2745,
      "papa": 2746,
      "ĠEnye": 2747,
      "ĠOlu": 2748,
      "noloji": 2749,
      "Ġane": 2750,
      "sipala": 2751,
      "khala": 2752,
      "ĠIM": 2753,
      "qulu": 2754,
      "wulos": 2755,
      "Ġephezulu": 2756,
      "pto": 2757,
      "vus": 2758,
      "mod": 2759,
      "Ġnazo": 2760,
      "Ġweb": 2761,
      "mephu": 2762,
      "ĠPh": 2763,
      "shishino": 2764,
      "à¤": 2765,
      "Qu": 2766,
      "sr": 2767,
      "Ġunako": 2768,
      "Ġakhe": 2769,
      "Ġkwakunye": 2770,
      "mzekelo": 2771,
      "Ġoonyana": 2772,
      "zinga": 2773,
      "Jo": 2774,
      "mpumelelo": 2775,
      "wudi": 2776,
      "kana": 2777,
      "pen": 2778,
      "ell": 2779,
      "De": 2780,
      "venkile": 2781,
      "yeke": 2782,
      "shushu": 2783,
      "ER": 2784,
      "rho": 2785,
      "rus": 2786,
      "Ġibhonasi": 2787,
      "Ġbi": 2788,
      "Ġbona": 2789,
      "fune": 2790,
      "Ġabathengi": 2791,
      "Ġyona": 2792,
      "Ġthina": 2793,
      "fakwe": 2794,
      "Ġfree": 2795,
      "ĠiB": 2796,
      "Ġeziphambili": 2797,
      "ĠKufuneka": 2798,
      "ID": 2799,
      "sesi": 2800,
      "Ġeno": 2801,
      "ĠRo": 2802,
      "Ġikhaya": 2803,
      "Ġebalulekileyo": 2804,
      "ĠAku": 2805,
      "ceba": 2806,
      "zuku": 2807,
      "Ġlin": 2808,
      "OM": 2809,
      "sity": 2810,
      "des": 2811,
      "jin": 2812,
      "mbolo": 2813,
      "Ġlam": 2814,
      "Pawulos": 2815,
      "tosterone": 2816,
      "oloni": 2817,
      "net": 2818,
      "Po": 2819,
      "kwan": 2820,
      "nika": 2821,
      "Ġuno": 2822,
      "Ġkwexesha": 2823,
      "Ġyemi": 2824,
      "qalelo": 2825,
      "dlelwane": 2826,
      "Ġsen": 2827,
      "ĠAr": 2828,
      "ãĥ": 2829,
      "Ġethi": 2830,
      "ess": 2831,
      "qhele": 2832,
      "puta": 2833,
      "Ġimeko": 2834,
      "ziko": 2835,
      "ero": 2836,
      "ĠBo": 2837,
      "Ġzokubeka": 2838,
      "coca": 2839,
      "Ġune": 2840,
      "ĠIsiF": 2841,
      "thiwa": 2842,
      "Ġuphando": 2843,
      "Ġkubantu": 2844,
      "ĠUYesu": 2845,
      "Ġusi": 2846,
      ".âĢĿâĢĶ": 2847,
      "ziwayo": 2848,
      "ĠTa": 2849,
      "Ð»": 2850,
      "sebenzise": 2851,
      "isayo": 2852,
      "ii": 2853,
      "ĠYenza": 2854,
      "baluleke": 2855,
      "Ġex": 2856,
      "qhubi": 2857,
      "ande": 2858,
      "Ġhe": 2859,
      "yeza": 2860,
      "tlo": 2861,
      "Ġkwezinye": 2862,
      "lungelel": 2863,
      "thuthu": 2864,
      "phendu": 2865,
      "IV": 2866,
      "tyho": 2867,
      "Ġndinga": 2868,
      "phuhliso": 2869,
      "cts": 2870,
      "fer": 2871,
      "ĠIsiH": 2872,
      "Ġimveliso": 2873,
      "Ġumntwana": 2874,
      "!!": 2875,
      "ÑĢ": 2876,
      "cakaza": 2877,
      "ZA": 2878,
      "Ġngaphambili": 2879,
      "cale": 2880,
      "Ġezilungileyo": 2881,
      "ĠuY": 2882,
      "ĠGa": 2883,
      "Ġkwinqanaba": 2884,
      "Ġwith": 2885,
      "eo": 2886,
      "car": 2887,
      "Ġluka": 2888,
      "jol": 2889,
      "phelo": 2890,
      "khwa": 2891,
      "Ġukubona": 2892,
      "Ġilizwi": 2893,
      "lungiselela": 2894,
      "cre": 2895,
      "Ġkutheni": 2896,
      "bikho": 2897,
      "Ġixabiso": 2898,
      "Ġlethu": 2899,
      "khompyu": 2900,
      "yon": 2901,
      "Ġkwezo": 2902,
      "Ġzibe": 2903,
      "lwayo": 2904,
      "yika": 2905,
      "krele": 2906,
      "zona": 2907,
      "jen": 2908,
      "Ġeliphezulu": 2909,
      "ĠJo": 2910,
      "Ġalu": 2911,
      "tywe": 2912,
      "tombi": 2913,
      "tch": 2914,
      "Ġingq": 2915,
      "qeqeshi": 2916,
      "zemidlalo": 2917,
      "ngcakaza": 2918,
      "politi": 2919,
      "ĠIsiTa": 2920,
      "umana": 2921,
      "Ġamazwi": 2922,
      "Ġzam": 2923,
      "Yiputa": 2924,
      "Ġisicelo": 2925,
      "ork": 2926,
      "Ġone": 2927,
      ".\"": 2928,
      "ĠDeposit": 2929,
      "Ġabasebenzisi": 2930,
      "Ġabafazi": 2931,
      "hili": 2932,
      "liya": 2933,
      "Ġendlwini": 2934,
      "Ġelikhulu": 2935,
      "gon": 2936,
      "cs": 2937,
      "pheleni": 2938,
      "ĠNgokomzekelo": 2939,
      "ĠJa": 2940,
      "Ġnjengokuba": 2941,
      "Ġamazwe": 2942,
      "Ġthat": 2943,
      "Ġbaku": 2944,
      "hlalu": 2945,
      "xulumene": 2946,
      "lungiswa": 2947,
      "beko": 2948,
      "ĠEx": 2949,
      "Ġman": 2950,
      "gin": 2951,
      "Ġumoya": 2952,
      "tur": 2953,
      "Ġukwen": 2954,
      "Gu": 2955,
      "loni": 2956,
      "Micro": 2957,
      "?âĢĿ": 2958,
      "Ġincoko": 2959,
      "Ti": 2960,
      "gqwe": 2961,
      "dade": 2962,
      "tiki": 2963,
      "ĠIsiChi": 2964,
      "chanekileyo": 2965,
      "yiswa": 2966,
      "zenza": 2967,
      "enti": 2968,
      "yele": 2969,
      "thuthi": 2970,
      "zelela": 2971,
      "Ġkangang": 2972,
      "mbon": 2973,
      "Ġeling": 2974,
      "gcine": 2975,
      "The": 2976,
      "Nkosi": 2977,
      "Ġezise": 2978,
      "ketho": 2979,
      "zobo": 2980,
      "endlela": 2981,
      "Ġumgangatho": 2982,
      "hluka": 2983,
      "golide": 2984,
      "lay": 2985,
      "ĠkuThixo": 2986,
      "mas": 2987,
      "elika": 2988,
      "Ġkwint": 2989,
      "ĠCh": 2990,
      "cine": 2991,
      "rs": 2992,
      "ingatha": 2993,
      "bileyo": 2994,
      "ĠFunda": 2995,
      "vuzo": 2996,
      "hawu": 2997,
      "FUN": 2998,
      "kodwa": 2999,
      "ĠTi": 3000,
      "vumelwano": 3001,
      "feze": 3002,
      "ĠuYo": 3003,
      "Ġnjl": 3004,
      "funekayo": 3005,
      "Rom": 3006,
      "pati": 3007,
      "bhetri": 3008,
      "ĠEzinye": 3009,
      "Ġngoba": 3010,
      "gakanani": 3011,
      "ĠIsa": 3012,
      "qun": 3013,
      "isweni": 3014,
      "IT": 3015,
      "Ġiku": 3016,
      "funyan": 3017,
      "khonkco": 3018,
      "Ġngazo": 3019,
      "ĠAman": 3020,
      "Ġiinkonzo": 3021,
      "Ġuyazi": 3022,
      "To": 3023,
      "rol": 3024,
      "Ġkwan": 3025,
      "Ġenoku": 3026,
      "Ġnendlela": 3027,
      "Roma": 3028,
      "ĠKuya": 3029,
      "mvo": 3030,
      "Ġukugcina": 3031,
      "Ġlaba": 3032,
      "Bha": 3033,
      "ĠuK": 3034,
      "Ġsesi": 3035,
      "buya": 3036,
      "ĠSu": 3037,
      "United": 3038,
      "finder": 3039,
      "qweno": 3040,
      "qong": 3041,
      "anti": 3042,
      "khululo": 3043,
      "diya": 3044,
      "gh": 3045,
      "guqula": 3046,
      "ania": 3047,
      "rekho": 3048,
      "khethi": 3049,
      "art": 3050,
      "ĠIsiM": 3051,
      ";+": 3052,
      "angaphambili": 3053,
      "wtlo": 3054,
      "srcid": 3055,
      "wtlocale": 3056,
      "Ġkwiminyaka": 3057,
      "luleko": 3058,
      "qoqosho": 3059,
      "jineli": 3060,
      "Ġbeku": 3061,
      "ĠZonke": 3062,
      "/\"": 3063,
      "ticle": 3064,
      "mbelelo": 3065,
      "Ġwokuqala": 3066,
      "sing": 3067,
      "Ġfi": 3068,
      "tshabala": 3069,
      "yn": 3070,
      "Ġiinkqubo": 3071,
      "data": 3072,
      "mfundo": 3073,
      "ĠNext": 3074,
      "lock": 3075,
      "Ġlun": 3076,
      "thana": 3077,
      "seM": 3078,
      "fumanisa": 3079,
      "fani": 3080,
      "ngen": 3081,
      "Ġsibe": 3082,
      "cede": 3083,
      "bili": 3084,
      "belana": 3085,
      "Ġkubekho": 3086,
      "hy": 3087,
      "ĠSer": 3088,
      "Ġiinkcukacha": 3089,
      "miselo": 3090,
      "Ġamanqaku": 3091,
      "Ġwayo": 3092,
      "Ġuthando": 3093,
      "Ġngubani": 3094,
      "Ġimini": 3095,
      "kudala": 3096,
      "Ġividiyo": 3097,
      "ker": 3098,
      "bhalo": 3099,
      "bhozo": 3100,
      "Ġwayi": 3101,
      "dium": 3102,
      "EM": 3103,
      "mkela": 3104,
      "lishumi": 3105,
      "Ġad": 3106,
      "Ġngosuku": 3107,
      "semthethweni": 3108,
      "Ġamakhulu": 3109,
      "ĠSt": 3110,
      "sisi": 3111,
      "Ġamagama": 3112,
      "sela": 3113,
      "Ġkwihlabathi": 3114,
      "fom": 3115,
      "oid": 3116,
      "Ġndiza": 3117,
      "Ġisetyenz": 3118,
      "Ġinkonzo": 3119,
      "tata": 3120,
      "ĠNgaphandle": 3121,
      "pti": 3122,
      "thethwa": 3123,
      "shici": 3124,
      "kcubeko": 3125,
      "Ġeban": 3126,
      "elizwe": 3127,
      "coce": 3128,
      "zing": 3129,
      "tyhini": 3130,
      "ĠInkqubo": 3131,
      "Ġlizwe": 3132,
      "Ġukuhamba": 3133,
      "ĠUkun": 3134,
      "ence": 3135,
      "Ġelung": 3136,
      "Ġuna": 3137,
      "Ġliya": 3138,
      "tshintsh": 3139,
      "ĠeS": 3140,
      "ĠIsiE": 3141,
      "up": 3142,
      "qeqesho": 3143,
      "Ġkwis": 3144,
      "tics": 3145,
      "Ġzombini": 3146,
      "thandathu": 3147,
      "Ġare": 3148,
      "tt": 3149,
      "ĠAndroid": 3150,
      "qhosha": 3151,
      "Ġekuqaleni": 3152,
      "ĠFumana": 3153,
      "Ġimifanekiso": 3154,
      "graphy": 3155,
      "xoxo": 3156,
      "elelwa": 3157,
      "khumbula": 3158,
      "Ġengena": 3159,
      "lwana": 3160,
      "ĠUN": 3161,
      "use": 3162,
      "lawulwa": 3163,
      "Ġkubalulekile": 3164,
      "Ġkufumana": 3165,
      "Ġezithile": 3166,
      "khumbu": 3167,
      "kwandisa": 3168,
      "video": 3169,
      "Ġbanoku": 3170,
      "Ġeline": 3171,
      "fakwa": 3172,
      "xeba": 3173,
      "MS": 3174,
      "twini": 3175,
      "ĠKule": 3176,
      "ĠOko": 3177,
      "Ġebomini": 3178,
      "haka": 3179,
      "ĠuE": 3180,
      "Ġkwixesha": 3181,
      "ĠKoloni": 3182,
      "ĠAbanye": 3183,
      "by": 3184,
      "Ġfu": 3185,
      "marike": 3186,
      "benza": 3187,
      "IC": 3188,
      "versity": 3189,
      "ĠIimpawu": 3190,
      "hland": 3191,
      "OS": 3192,
      "undu": 3193,
      "Ġingqalelo": 3194,
      "ĠWe": 3195,
      "hare": 3196,
      "Ġumxholo": 3197,
      "ĠyeN": 3198,
      "taka": 3199,
      "cinge": 3200,
      "pte": 3201,
      "Text": 3202,
      "tso": 3203,
      "all": 3204,
      "Ġzeen": 3205,
      "Ġnokun": 3206,
      "phosa": 3207,
      "gcinwa": 3208,
      "ĠiS": 3209,
      "Ðº": 3210,
      "ĠIsiU": 3211,
      "bhanki": 3212,
      "misele": 3213,
      "lapho": 3214,
      "ĠâĨ": 3215,
      "Ġeziyi": 3216,
      "keleyo": 3217,
      "Ġumfanekiso": 3218,
      "khuselekileyo": 3219,
      "lia": 3220,
      "isele": 3221,
      "sebenzayo": 3222,
      "phathe": 3223,
      "Ġiingxaki": 3224,
      "ziso": 3225,
      "din": 3226,
      "Ġibha": 3227,
      "ple": 3228,
      "Ġngemihla": 3229,
      "Ġabayi": 3230,
      "Ġnkqubo": 3231,
      "Ġehlabathini": 3232,
      "Ġkunokwenzeka": 3233,
      "zindlu": 3234,
      "xelele": 3235,
      "tates": 3236,
      "Ġ:": 3237,
      "ust": 3238,
      "Ch": 3239,
      "ĠkwiN": 3240,
      "lot": 3241,
      "debe": 3242,
      "ef": 3243,
      "Ġlwama": 3244,
      "gula": 3245,
      "Ġyokwenza": 3246,
      "ĠiM": 3247,
      "Ġbayo": 3248,
      "nike": 3249,
      "Ġ$(": 3250,
      ".)": 3251,
      "Ġyezo": 3252,
      "Isa": 3253,
      "enzelwe": 3254,
      "yeka": 3255,
      "len": 3256,
      "entengiso": 3257,
      "qhagamsh": 3258,
      "Auto": 3259,
      "TS": 3260,
      "ĠEyona": 3261,
      "etros": 3262,
      "tambo": 3263,
      "khiwa": 3264,
      "lun": 3265,
      "Bu": 3266,
      "khundla": 3267,
      "ĠSiya": 3268,
      "kelelo": 3269,
      "PA": 3270,
      "China": 3271,
      "KA": 3272,
      "phandi": 3273,
      "zekel": 3274,
      "Ġomtsha": 3275,
      "lingana": 3276,
      "sebe": 3277,
      "TV": 3278,
      "soft": 3279,
      "shumayela": 3280,
      "LU": 3281,
      "Ġophezulu": 3282,
      "Ġukufikelela": 3283,
      "Ġarticle": 3284,
      "xhala": 3285,
      "Ġbama": 3286,
      "Ġisixhobo": 3287,
      "xy": 3288,
      "hali": 3289,
      "bumba": 3290,
      "mel": 3291,
      "hlangana": 3292,
      "indows": 3293,
      "butho": 3294,
      "Ġelula": 3295,
      "ĠChina": 3296,
      "dibene": 3297,
      "caleni": 3298,
      "Ġawaye": 3299,
      "buyela": 3300,
      "zwana": 3301,
      "then": 3302,
      "mbisa": 3303,
      "bonakali": 3304,
      "kcazelo": 3305,
      "hambi": 3306,
      "Ngesi": 3307,
      "Ġukukhanya": 3308,
      "rhwebo": 3309,
      "hn": 3310,
      "teyu": 3311,
      "qhe": 3312,
      "Ġor": 3313,
      "Ġeziphezulu": 3314,
      "Ġzayo": 3315,
      "rypto": 3316,
      "thintela": 3317,
      "Ġamathuba": 3318,
      "ĠIzinto": 3319,
      "Ġelithi": 3320,
      "anduva": 3321,
      "hlula": 3322,
      "bhinqa": 3323,
      "anto": 3324,
      "Ġeyo": 3325,
      "TO": 3326,
      "lane": 3327,
      "phelileyo": 3328,
      "ĠCon": 3329,
      "ĠPar": 3330,
      "Ġay": 3331,
      "Ġezinoku": 3332,
      "Ġsama": 3333,
      "zimbeni": 3334,
      "Ġubudala": 3335,
      "xanduva": 3336,
      "Ġuninzi": 3337,
      "NAB": 3338,
      "Ġishishini": 3339,
      "yilo": 3340,
      "way": 3341,
      "ĠUThixo": 3342,
      "zil": 3343,
      "Ġiintsuku": 3344,
      "Ġukum": 3345,
      "Ġaza": 3346,
      "ating": 3347,
      "Ġemininzi": 3348,
      "ĠUmzekelo": 3349,
      "Ġisebenza": 3350,
      "tshala": 3351,
      "tia": 3352,
      "ĠnoM": 3353,
      "isekileyo": 3354,
      "ĠKh": 3355,
      "guqulelo": 3356,
      "Ġukhetho": 3357,
      "sign": 3358,
      "Ġani": 3359,
      "kom": 3360,
      "ĠStates": 3361,
      "Sase": 3362,
      "vumele": 3363,
      "bhere": 3364,
      "caciso": 3365,
      "Ġukuthetha": 3366,
      "amu": 3367,
      "lambo": 3368,
      "ISO": 3369,
      "daka": 3370,
      "ject": 3371,
      "Ġnalo": 3372,
      "Ġngaloo": 3373,
      "wula": 3374,
      "qeqesha": 3375,
      "anje": 3376,
      "UR": 3377,
      "veni": 3378,
      "zekeliso": 3379,
      "Bukumkani": 3380,
      "Ġbaze": 3381,
      "Ġit": 3382,
      "Ġekun": 3383,
      "ĠOnline": 3384,
      "belo": 3385,
      "xoki": 3386,
      "Um": 3387,
      "Ġgi": 3388,
      "isiwe": 3389,
      "wuphi": 3390,
      "fudu": 3391,
      "Ġumhla": 3392,
      "dumiso": 3393,
      "Fran": 3394,
      "dwendwe": 3395,
      "ĠuDavide": 3396,
      "âĢĭ": 3397,
      "zeni": 3398,
      "Ġnina": 3399,
      "ĠInter": 3400,
      "Ġti": 3401,
      "Ġngonyaka": 3402,
      "Ġuncedo": 3403,
      "tyebi": 3404,
      "thunywa": 3405,
      "Ġubha": 3406,
      "ĠUnoku": 3407,
      "bonakale": 3408,
      "kuma": 3409,
      "yusa": 3410,
      "balulekile": 3411,
      "Ġsinoku": 3412,
      "Ġurl": 3413,
      "Ġyokun": 3414,
      "onti": 3415,
      "Ġelinga": 3416,
      "Ġokokuba": 3417,
      "lette": 3418,
      "docid": 3419,
      "Ġzon": 3420,
      "tar": 3421,
      "kro": 3422,
      "Ġbayi": 3423,
      "Ġimibuzo": 3424,
      "Ġibonisa": 3425,
      "ĠIS": 3426,
      "Ġekugqibeleni": 3427,
      "zila": 3428,
      "chas": 3429,
      "ondolo": 3430,
      "qanda": 3431,
      "betha": 3432,
      "phathiswa": 3433,
      "Ġib": 3434,
      "kqubela": 3435,
      "gqibeleleyo": 3436,
      "ĠWaye": 3437,
      "wandle": 3438,
      "ĠBest": 3439,
      "Ä±": 3440,
      "Ġngabo": 3441,
      "Ġmusa": 3442,
      "ĠInto": 3443,
      "pt": 3444,
      "Eng": 3445,
      "fundisi": 3446,
      "ziphatha": 3447,
      "ĠneN": 3448,
      "pter": 3449,
      "ombolo": 3450,
      "ulayi": 3451,
      "Ġkwabantu": 3452,
      "bonakalisa": 3453,
      "kum": 3454,
      "ins": 3455,
      "Ġiphepha": 3456,
      "Ġngale": 3457,
      "ĠTattoo": 3458,
      "Ko": 3459,
      "Ġinkampani": 3460,
      "Ġnangoku": 3461,
      "thweni": 3462,
      "que": 3463,
      "Ġnon": 3464,
      "Ġkubonakala": 3465,
      "qhubeke": 3466,
      "Ġepheleleyo": 3467,
      "misela": 3468,
      "Itali": 3469,
      "funayo": 3470,
      "ĠCity": 3471,
      "base": 3472,
      "thoba": 3473,
      "cina": 3474,
      "bamb": 3475,
      "kululeko": 3476,
      "ĠPi": 3477,
      "Ġedlulileyo": 3478,
      "ffi": 3479,
      "ub": 3480,
      "ĠuSa": 3481,
      "Rashiya": 3482,
      "gqithis": 3483,
      "Ġokunga": 3484,
      "thali": 3485,
      "Ġeyayi": 3486,
      "\").": 3487,
      "Un": 3488,
      "vious": 3489,
      "onde": 3490,
      "Ġangama": 3491,
      "Isi": 3492,
      "Ġkuloo": 3493,
      "ans": 3494,
      "bonise": 3495,
      "gosa": 3496,
      "ulti": 3497,
      "ĠNGOKU": 3498,
      "Ġkuse": 3499,
      "Ġisigqibo": 3500,
      "esis": 3501,
      "khali": 3502,
      "ĠFi": 3503,
      "banjwa": 3504,
      "inin": 3505,
      "port": 3506,
      "inte": 3507,
      "ishumi": 3508,
      "yinto": 3509,
      "nu": 3510,
      "thathwa": 3511,
      "Ġngaphantsi": 3512,
      "Ġabazi": 3513,
      "wenza": 3514,
      "ĠIgama": 3515,
      "tshanje": 3516,
      "lwandle": 3517,
      "Ġamava": 3518,
      "Ġkwing": 3519,
      ".âĢĿ+": 3520,
      "lumini": 3521,
      "Ġnoo": 3522,
      "Ġzokuhamba": 3523,
      "Ro": 3524,
      "Ġwas": 3525,
      "gcwa": 3526,
      "dile": 3527,
      "catshu": 3528,
      "Japan": 3529,
      "mg": 3530,
      "ĠuP": 3531,
      "phile": 3532,
      "ptemba": 3533,
      "Ġngent": 3534,
      "erbi": 3535,
      "profeti": 3536,
      "linye": 3537,
      "rit": 3538,
      "kiyo": 3539,
      "tyan": 3540,
      "Ġnantoni": 3541,
      "Ġlabo": 3542,
      "view": 3543,
      "Ġeni": 3544,
      "zileyo": 3545,
      "aba": 3546,
      "Ġyindlela": 3547,
      "yelwe": 3548,
      "Ġezivela": 3549,
      "tory": 3550,
      "ua": 3551,
      "Ġinxaxheba": 3552,
      "ĠNam": 3553,
      "jithali": 3554,
      "Ġezis": 3555,
      "pathi": 3556,
      "Ġyeyona": 3557,
      "hlola": 3558,
      "qonde": 3559,
      "Ġubunzima": 3560,
      "eso": 3561,
      "Ġyenye": 3562,
      "LI": 3563,
      "sinye": 3564,
      "qokelela": 3565,
      "ĠZe": 3566,
      "cum": 3567,
      "Ġuse": 3568,
      "Ġnoko": 3569,
      "thambo": 3570,
      "Ñĥ": 3571,
      "ceta": 3572,
      "bhaka": 3573,
      "senoku": 3574,
      "vele": 3575,
      "Ġabu": 3576,
      "Lwe": 3577,
      "keka": 3578,
      "qaqa": 3579,
      "bindi": 3580,
      "thixo": 3581,
      "Thu": 3582,
      "lunye": 3583,
      "redi": 3584,
      "witter": 3585,
      "fihla": 3586,
      "bhaliweyo": 3587,
      "Ri": 3588,
      "AM": 3589,
      "CO": 3590,
      "DI": 3591,
      "Ġbantu": 3592,
      "cast": 3593,
      "ria": 3594,
      "bhodi": 3595,
      "dam": 3596,
      "hlamba": 3597,
      "ĠIsiTshayina": 3598,
      "ĠPrevious": 3599,
      "Al": 3600,
      "Ġingxelo": 3601,
      "mart": 3602,
      "mbela": 3603,
      "Ġlwakhe": 3604,
      "ĠiP": 3605,
      "kude": 3606,
      "Ġmihla": 3607,
      "ĠUniversity": 3608,
      "mber": 3609,
      "onia": 3610,
      "phon": 3611,
      "qwalasela": 3612,
      "ĠAl": 3613,
      "galelo": 3614,
      "zis": 3615,
      "Ġinkxaso": 3616,
      "ĠNoko": 3617,
      "cation": 3618,
      "kunzi": 3619,
      "Ġufumana": 3620,
      "Ġicala": 3621,
      "ĠWeb": 3622,
      "HO": 3623,
      "meni": 3624,
      "Ġbon": 3625,
      "Ġutshintsho": 3626,
      "ĠGu": 3627,
      "Ġiimeko": 3628,
      "qesh": 3629,
      "KO": 3630,
      "THI": 3631,
      "ongezel": 3632,
      "elelwe": 3633,
      "mpazamo": 3634,
      "Ġkulula": 3635,
      "eleni": 3636,
      "ĠIbali": 3637,
      "phulaphu": 3638,
      "ls": 3639,
      "bulela": 3640,
      "ĠOmnye": 3641,
      "post": 3642,
      "thunyelwa": 3643,
      "ĠIxesha": 3644,
      "tattoos": 3645,
      "hlela": 3646,
      "cks": 3647,
      "Ġndin": 3648,
      "phakamisa": 3649,
      "hlandlo": 3650,
      "cer": 3651,
      "qina": 3652,
      "yane": 3653,
      "Ġnyaka": 3654,
      "phanda": 3655,
      "Ġbom": 3656,
      "Ġcha": 3657,
      "qingatha": 3658,
      "dlalweni": 3659,
      "Car": 3660,
      "laba": 3661,
      "engxaki": 3662,
      "kunika": 3663,
      "qhamo": 3664,
      "stan": 3665,
      "Ġuyakwazi": 3666,
      "cle": 3667,
      "dlula": 3668,
      "ET": 3669,
      "modeli": 3670,
      "dli": 3671,
      "Ġekwa": 3672,
      "ĠUninzi": 3673,
      "loliwe": 3674,
      "phethe": 3675,
      "hanjiswa": 3676,
      "Ġukuqinisekisa": 3677,
      "Ġninga": 3678,
      "road": 3679,
      "ĠIngaba": 3680,
      "Ġisandla": 3681,
      "kwenkwezi": 3682,
      "ofisi": 3683,
      "rhafu": 3684,
      "ĠIint": 3685,
      "mpembelelo": 3686,
      "yisebenzisa": 3687,
      "Ġkuna": 3688,
      "Ġinike": 3689,
      "Ġingxaki": 3690,
      "linganisa": 3691,
      "Ġkwimeko": 3692,
      "xinzelelo": 3693,
      "khuphela": 3694,
      "gqitha": 3695,
      "Ġityala": 3696,
      "Ġlwaba": 3697,
      "Ġentle": 3698,
      "Bo": 3699,
      "Ġkwilizwe": 3700,
      "wuli": 3701,
      "Ġmeko": 3702,
      "gwebo": 3703,
      "donga": 3704,
      "than": 3705,
      "qobo": 3706,
      "Ġziye": 3707,
      "politiko": 3708,
      "Ġiindleko": 3709,
      "vuya": 3710,
      "Ġkwethu": 3711,
      "ril": 3712,
      "andarin": 3713,
      "Ġite": 3714,
      "inike": 3715,
      "ĠTrain": 3716,
      "ings": 3717,
      "Ġezintle": 3718,
      "Ġkwindlela": 3719,
      "Khu": 3720,
      "ĠKristu": 3721,
      "gozi": 3722,
      "ĠSlot": 3723,
      "chwepheshe": 3724,
      "Ġzizi": 3725,
      "Ġamathathu": 3726,
      "fikelele": 3727,
      "cur": 3728,
      "Ġx": 3729,
      "buyisela": 3730,
      "liswe": 3731,
      "ĠUthi": 3732,
      "dleni": 3733,
      "ves": 3734,
      "dalwa": 3735,
      "kwin": 3736,
      "gxinin": 3737,
      "thandi": 3738,
      "entlalo": 3739,
      "Ġeme": 3740,
      "jongene": 3741,
      "Ġiso": 3742,
      "Ġwatsho": 3743,
      "Ġsiye": 3744,
      "qua": 3745,
      "deni": 3746,
      "tshat": 3747,
      "qum": 3748,
      "Ġfrom": 3749,
      "!âĢĿ": 3750,
      "eniso": 3751,
      "Ġukuqonda": 3752,
      "sebenzisana": 3753,
      "Ġwakwa": 3754,
      "Ġluya": 3755,
      "red": 3756,
      "zukulwana": 3757,
      "ĠLight": 3758,
      "akobi": 3759,
      "gue": 3760,
      "obu": 3761,
      "mama": 3762,
      "cra": 3763,
      "tyelela": 3764,
      "Ġingakumbi": 3765,
      "gxina": 3766,
      "anjalo": 3767,
      "halo": 3768,
      "gxo": 3769,
      "Ġziza": 3770,
      "Ġbezi": 3771,
      "Ġkuhlala": 3772,
      "Ġefana": 3773,
      "tyambo": 3774,
      "bheja": 3775,
      "ĠAndi": 3776,
      "khethiweyo": 3777,
      "tro": 3778,
      "ĠMna": 3779,
      "web": 3780,
      "\",": 3781,
      "Ġneent": 3782,
      "hetha": 3783,
      "outh": 3784,
      "Ġizindlu": 3785,
      "ystem": 3786,
      "ju": 3787,
      "ĠUnited": 3788,
      "tshaba": 3789,
      "Ġbun": 3790,
      "liphi": 3791,
      "Ġnako": 3792,
      "Grike": 3793,
      "khutshwa": 3794,
      "ĠKwe": 3795,
      "ĠBonisa": 3796,
      "ezi": 3797,
      "Ġkamva": 3798,
      "ĠKwaku": 3799,
      "ÐµÐ": 3800,
      "Ġkubandakanya": 3801,
      "Ġmali": 3802,
      "Ġngaye": 3803,
      "Ġwee": 3804,
      "Ġmaka": 3805,
      "AC": 3806,
      "sukela": 3807,
      "Ġiy": 3808,
      "banj": 3809,
      "ĠYonke": 3810,
      "Yohane": 3811,
      "Ġphi": 3812,
      "Ġlwesi": 3813,
      "Ġelungileyo": 3814,
      "yiweyo": 3815,
      "Ġsizi": 3816,
      "ĠMusa": 3817,
      "ĠYork": 3818,
      "kolweni": 3819,
      "Ġnale": 3820,
      "Ġdating": 3821,
      "ester": 3822,
      "setyhini": 3823,
      "bucala": 3824,
      "velaphi": 3825,
      "Ġkusi": 3826,
      "Ġungum": 3827,
      "ml": 3828,
      "rhu": 3829,
      "Ġyabantu": 3830,
      "thamo": 3831,
      "Ġnezinto": 3832,
      "qolo": 3833,
      "Ġeyenza": 3834,
      "ĠMobile": 3835,
      "ger": 3836,
      "won": 3837,
      "balo": 3838,
      "khen": 3839,
      "cia": 3840,
      "ĠOk": 3841,
      "elani": 3842,
      "una": 3843,
      "ongezelelweyo": 3844,
      "Ġozi": 3845,
      "kokh": 3846,
      "Ġeninzi": 3847,
      "rls": 3848,
      "rid": 3849,
      "shin": 3850,
      "philayo": 3851,
      "Ġngethuba": 3852,
      "rm": 3853,
      "Ġabadala": 3854,
      "inn": 3855,
      "Ġra": 3856,
      "esh": 3857,
      "chine": 3858,
      "kwangoku": 3859,
      "bomvu": 3860,
      "ungqu": 3861,
      "bandakanye": 3862,
      "funyanwa": 3863,
      "ĠVi": 3864,
      "luphi": 3865,
      "Zulu": 3866,
      "pes": 3867,
      "ĠÃ": 3868,
      "vemba": 3869,
      "hlaziywa": 3870,
      "ĠZa": 3871,
      "ank": 3872,
      "Ġuhambo": 3873,
      "Ġzii": 3874,
      "OL": 3875,
      "babini": 3876,
      "tsal": 3877,
      "Ġulawulo": 3878,
      "Ġbaben": 3879,
      "khumba": 3880,
      "Ġeso": 3881,
      "Cha": 3882,
      "zinyo": 3883,
      "nt": 3884,
      "Ġabasebenzi": 3885,
      "Ġuli": 3886,
      "how": 3887,
      "cess": 3888,
      "Ġtra": 3889,
      "Ġemzimbeni": 3890,
      "Ġwawu": 3891,
      "qam": 3892,
      "ILEYO": 3893,
      "Ġihlabathi": 3894,
      "Ġinyaniso": 3895,
      "hlaleni": 3896,
      "siseko": 3897,
      ".,": 3898,
      "anam": 3899,
      "Facebook": 3900,
      "gqu": 3901,
      "Ġeye": 3902,
      "Ġoya": 3903,
      "esa": 3904,
      "Ġphantse": 3905,
      "ĠAfri": 3906,
      "ĠIsiSlo": 3907,
      "ĠSaseM": 3908,
      "thembekileyo": 3909,
      "ĠSaseMandarin": 3910,
      "ĠEye": 3911,
      "simi": 3912,
      "yer": 3913,
      "dijithali": 3914,
      "Ġyalo": 3915,
      "ĠFor": 3916,
      "ĠCar": 3917,
      "hulumente": 3918,
      "Ġndiyi": 3919,
      "ELO": 3920,
      "panish": 3921,
      "sti": 3922,
      "Ġeba": 3923,
      "ĠKung": 3924,
      "thande": 3925,
      "RE": 3926,
      "Ġnqaku": 3927,
      "Ġukuthatha": 3928,
      "Ġlee": 3929,
      "ĠiNkosi": 3930,
      "Ġakazange": 3931,
      "Ġzabantu": 3932,
      "mfazwe": 3933,
      "zeleka": 3934,
      "ĠbakaSirayeli": 3935,
      "Ġona": 3936,
      "zile": 3937,
      "Ġsam": 3938,
      "Ġintliziyo": 3939,
      "Ð°Ð": 3940,
      "gus": 3941,
      "elisa": 3942,
      "thandaza": 3943,
      "Ġowaye": 3944,
      "ungquthela": 3945,
      "boni": 3946,
      "PHA": 3947,
      "chazwe": 3948,
      "ror": 3949,
      "ĠkuM": 3950,
      "Ġac": 3951,
      "Ġuk": 3952,
      "--": 3953,
      "seleyo": 3954,
      "Ġngokufanelekileyo": 3955,
      "dra": 3956,
      "Ġmini": 3957,
      "xhoba": 3958,
      "huma": 3959,
      "thandana": 3960,
      "back": 3961,
      "Ġnobun": 3962,
      "gqibe": 3963,
      "ĠTop": 3964,
      "elu": 3965,
      "Ġulwimi": 3966,
      "hlweni": 3967,
      "Ġ@": 3968,
      "enzeke": 3969,
      "qwenela": 3970,
      "ãĤ": 3971,
      "ments": 3972,
      "imeyile": 3973,
      "Ġamehlo": 3974,
      "ĠuMo": 3975,
      "Ġkunzima": 3976,
      "dana": 3977,
      "Ġkabini": 3978,
      "layis": 3979,
      "Ġeziqhelekileyo": 3980,
      "Ġzis": 3981,
      "Ġekha": 3982,
      "ube": 3983,
      "Ġngamandla": 3984,
      "Ġkubakho": 3985,
      "ĠlikaThixo": 3986,
      "work": 3987,
      "Ġamawaka": 3988,
      "ĠHigh": 3989,
      "engo": 3990,
      "Moses": 3991,
      "ky": 3992,
      "Ġyaku": 3993,
      "Ġenge": 3994,
      "ĠBio": 3995,
      "ebru": 3996,
      "ĠeMzantsi": 3997,
      "Ġkwelinye": 3998,
      "Ġimpahla": 3999,
      "ĠRi": 4000,
      "Ġoza": 4001,
      "Ġkwizinto": 4002,
      "ĠNi": 4003,
      "fuman": 4004,
      "sazi": 4005,
      "lapha": 4006,
      "Ġkwisa": 4007,
      "dityan": 4008,
      "dlulis": 4009,
      "Ġnani": 4010,
      "Com": 4011,
      "phone": 4012,
      "Ġamalungu": 4013,
      "gasti": 4014,
      "Ya": 4015,
      "Ġekupheleni": 4016,
      "Ġkakubi": 4017,
      "ĠKW": 4018,
      "ĠEng": 4019,
      "Hebhere": 4020,
      "Yunivesithi": 4021,
      "stagram": 4022,
      "Ġezisi": 4023,
      "kethi": 4024,
      "sebenze": 4025,
      "Ġubungqina": 4026,
      "cedisa": 4027,
      "pheli": 4028,
      "buhlungu": 4029,
      "Ġabazali": 4030,
      "Ġamaqela": 4031,
      "New": 4032,
      "phathwa": 4033,
      "Ġngokuzenzekelayo": 4034,
      "au": 4035,
      "yena": 4036,
      "phan": 4037,
      "Ġeland": 4038,
      "fundiso": 4039,
      "Ġiba": 4040,
      "benzisa": 4041,
      "susa": 4042,
      "Ġngeendlela": 4043,
      "Ġnabani": 4044,
      "mal": 4045,
      "xwe": 4046,
      "eral": 4047,
      "Ġyehlabathi": 4048,
      "bul": 4049,
      "Ġsonke": 4050,
      "ries": 4051,
      "Amazon": 4052,
      "lue": 4053,
      "ĠIsiL": 4054,
      "coin": 4055,
      "thwalo": 4056,
      "Ġet": 4057,
      "ĠIsiD": 4058,
      "ram": 4059,
      "phazam": 4060,
      "ĠUhlobo": 4061,
      "Ġkune": 4062,
      "Ġkobu": 4063,
      "ZE": 4064,
      "Ġmsebenzi": 4065,
      "Ġyour": 4066,
      "gcono": 4067,
      "cebisa": 4068,
      "tors": 4069,
      "Ġngezinto": 4070,
      "ĠDating": 4071,
      "Ġsing": 4072,
      "ĠIsiSerbi": 4073,
      "mar": 4074,
      "funyen": 4075,
      "Ġlwabo": 4076,
      "vil": 4077,
      "ekayo": 4078,
      "qondiso": 4079,
      "dish": 4080,
      "Ġsite": 4081,
      "fazwe": 4082,
      "vid": 4083,
      "Ġutsho": 4084,
      "Ġngelo": 4085,
      "Ġkuzi": 4086,
      "ĠNgom": 4087,
      "chnolo": 4088,
      "Ty": 4089,
      "lus": 4090,
      "ĠNgokuba": 4091,
      "Ġlayo": 4092,
      "Mateyu": 4093,
      "Ġenze": 4094,
      "ciphe": 4095,
      "Ġkula": 4096,
      "Ġelizayo": 4097,
      "Ġyamandla": 4098,
      "chaphazela": 4099,
      "Ġizandla": 4100,
      "isemba": 4101,
      "rates": 4102,
      "qinisekiso": 4103,
      "catshulwa": 4104,
      "lizi": 4105,
      "tsing": 4106,
      "Ġzazi": 4107,
      "fayili": 4108,
      "leli": 4109,
      "senza": 4110,
      "Ġkwenye": 4111,
      "Ġyazo": 4112,
      "Ġyokuhlala": 4113,
      "ĠIm": 4114,
      "ĠAd": 4115,
      "urope": 4116,
      "Ġgu": 4117,
      "Ġabazalwana": 4118,
      "Kh": 4119,
      "Ġizimvo": 4120,
      "dibano": 4121,
      "matshini": 4122,
      "hlangabe": 4123,
      "tus": 4124,
      "Ġiingu": 4125,
      "press": 4126,
      "Ġibi": 4127,
      "Ġngon": 4128,
      "ĠUmn": 4129,
      "ISA": 4130,
      "Ġsiyi": 4131,
      "rentshi": 4132,
      "tsingiselo": 4133,
      "qhelekanga": 4134,
      ",\"": 4135,
      "lungiselelo": 4136,
      "Ġngawo": 4137,
      "Ġgo": 4138,
      "hlalo": 4139,
      "Ġngamanye": 4140,
      "Ġzanga": 4141,
      "sefu": 4142,
      "ĠYehlabathi": 4143,
      "kokheli": 4144,
      "Es": 4145,
      "gs": 4146,
      "isetyenziswa": 4147,
      "ĠIsiQu": 4148,
      "angalisayo": 4149,
      "via": 4150,
      "thandazo": 4151,
      "Ġesandleni": 4152,
      "bana": 4153,
      "lass": 4154,
      "Ð¸Ð": 4155,
      "ĠeP": 4156,
      "ĠKulu": 4157,
      "Bh": 4158,
      "ĠChi": 4159,
      "lli": 4160,
      "sine": 4161,
      "thelekiswa": 4162,
      "ebhu": 4163,
      "Ġuphawu": 4164,
      "ntwana": 4165,
      "phun": 4166,
      "yim": 4167,
      "ĠHayi": 4168,
      "fili": 4169,
      "Ġika": 4170,
      "Ġivideo": 4171,
      "amp": 4172,
      "ĠKhu": 4173,
      "Ġngokulula": 4174,
      "Ġnjengesi": 4175,
      "Ĥ¬": 4176,
      "kwenziwa": 4177,
      "knoloji": 4178,
      "por": 4179,
      "ĠMatshi": 4180,
      "Ġkunyaka": 4181,
      "Ġziin": 4182,
      "Geor": 4183,
      "ubai": 4184,
      "Ġsize": 4185,
      "Ġumphefumlo": 4186,
      "mpela": 4187,
      "ĠInkcazo": 4188,
      "NC": 4189,
      "Microsoft": 4190,
      "VA": 4191,
      "ĠuPawulos": 4192,
      "Ġimithetho": 4193,
      "fuphi": 4194,
      "ĠWi": 4195,
      "Ġemehlweni": 4196,
      "Ġincwadi": 4197,
      "Ġukwenzela": 4198,
      "Ġndiku": 4199,
      "thiwekhi": 4200,
      "bingeleli": 4201,
      "Ġkwinkqubo": 4202,
      "lingo": 4203,
      "Ġekufuneka": 4204,
      "xwebhu": 4205,
      "elung": 4206,
      "Ġnezo": 4207,
      "thobela": 4208,
      "Ġunyango": 4209,
      "zenz": 4210,
      "ĠAs": 4211,
      "tala": 4212,
      "Geo": 4213,
      "ngekho": 4214,
      "ĠKor": 4215,
      "xab": 4216,
      "Ġurhulumente": 4217,
      "Mar": 4218,
      "wayo": 4219,
      "thathi": 4220,
      "bhen": 4221,
      "leleni": 4222,
      "Phone": 4223,
      "ktobha": 4224,
      "ĠuT": 4225,
      "Ġkwezinto": 4226,
      "ĠYin": 4227,
      "Ġro": 4228,
      "Ġyint": 4229,
      "Ġlwethu": 4230,
      "cacisa": 4231,
      "testosterone": 4232,
      "khululekile": 4233,
      "yweni": 4234,
      "ingeleli": 4235,
      "ĠStadium": 4236,
      "thango": 4237,
      "Ġiincwadi": 4238,
      "Ġngokucacileyo": 4239,
      "Ġmveliso": 4240,
      "Ġlwase": 4241,
      "UNYE": 4242,
      "yang": 4243,
      "ĠUluhlu": 4244,
      "ĠyoM": 4245,
      "ala": 4246,
      "Ġukholo": 4247,
      "thin": 4248,
      "Ġngcono": 4249,
      "entley": 4250,
      "anuwari": 4251,
      "gia": 4252,
      "wona": 4253,
      "Ġezama": 4254,
      "efs": 4255,
      "buze": 4256,
      "ĠamaNgqina": 4257,
      "sinceda": 4258,
      "velisi": 4259,
      "sihlanu": 4260,
      "hloni": 4261,
      "ance": 4262,
      "endaba": 4263,
      "Ġisizathu": 4264,
      "luminium": 4265,
      "body": 4266,
      "hlambulu": 4267,
      "mbewu": 4268,
      "urk": 4269,
      "xham": 4270,
      "Ġol": 4271,
      "Ġelina": 4272,
      "Ġezizi": 4273,
      "xoko": 4274,
      "tshiswa": 4275,
      "Ġukuthenga": 4276,
      "une": 4277,
      "Ġbenga": 4278,
      "tsi": 4279,
      "veliswa": 4280,
      "kulung": 4281,
      "Ġulwa": 4282,
      "tafile": 4283,
      "Ġ)": 4284,
      "Ġnceda": 4285,
      "Ġukubonisa": 4286,
      "tec": 4287,
      "ishwa": 4288,
      "ĠIsiTs": 4289,
      "chua": 4290,
      "Sh": 4291,
      "Ġiimfuno": 4292,
      "Ġkumazwe": 4293,
      "Ġnange": 4294,
      "boka": 4295,
      "Ġayikho": 4296,
      "Bi": 4297,
      "âĢĿ,": 4298,
      "Ġesis": 4299,
      "Ġkuthiwa": 4300,
      "dlale": 4301,
      "bhalwe": 4302,
      "ĠJonga": 4303,
      "wonke": 4304,
      "Ġkweminyaka": 4305,
      "Ġesinga": 4306,
      "ĠGcina": 4307,
      "kunjalo": 4308,
      "jongana": 4309,
      "Ġty": 4310,
      "khokelela": 4311,
      "ked": 4312,
      "vakalelwa": 4313,
      "ED": 4314,
      "Ġeqhelekileyo": 4315,
      "undoqo": 4316,
      "bai": 4317,
      "Ġibhola": 4318,
      "Ġifowuni": 4319,
      "Ġvar": 4320,
      "Ġngokukodwa": 4321,
      "khankan": 4322,
      "gital": 4323,
      "ĠIsiKi": 4324,
      "Ġuluntu": 4325,
      "lani": 4326,
      "mano": 4327,
      "tsala": 4328,
      "ĠNamhlanje": 4329,
      "Ġezikhoyo": 4330,
      "lenze": 4331,
      "Kapa": 4332,
      "oyile": 4333,
      "zoku": 4334,
      "Ġncwadi": 4335,
      "Ġyon": 4336,
      "Ġzazo": 4337,
      "sasazo": 4338,
      "Ġucinga": 4339,
      "lima": 4340,
      "saba": 4341,
      "Ġlwezi": 4342,
      "bhiyo": 4343,
      "qulelo": 4344,
      "mvaka": 4345,
      "ileta": 4346,
      "Ġemdlalweni": 4347,
      "ĠKwathi": 4348,
      "Ġkungekho": 4349,
      "Ġethu": 4350,
      "mbileyo": 4351,
      "dis": 4352,
      "Ġndandi": 4353,
      "Ġukhuseleko": 4354,
      "vuka": 4355,
      "key": 4356,
      "ĠIsiSwa": 4357,
      "zalise": 4358,
      "Ġono": 4359,
      "xibelelana": 4360,
      "yuli": 4361,
      "vavanya": 4362,
      "Ġeluhlaza": 4363,
      "ast": 4364,
      "ges": 4365,
      "jika": 4366,
      "Ġbafuna": 4367,
      "ray": 4368,
      "bs": 4369,
      "dus": 4370,
      "Ġokwe": 4371,
      "Ġzenu": 4372,
      "Ġzemi": 4373,
      "ongezelela": 4374,
      "shiye": 4375,
      "Su": 4376,
      "Ġoma": 4377,
      "qule": 4378,
      "Ġiinyanga": 4379,
      "cket": 4380,
      "swe": 4381,
      "Ġhi": 4382,
      "ĠuH": 4383,
      "Ġbenze": 4384,
      "roulette": 4385,
      "Ġngona": 4386,
      "liver": 4387,
      "Ġiiyure": 4388,
      "phakama": 4389,
      "isebenzise": 4390,
      "gangathweni": 4391,
      "BO": 4392,
      "bal": 4393,
      "ĠPla": 4394,
      "arch": 4395,
      "ĠUmsebenzi": 4396,
      "Ġukubu": 4397,
      "qhelo": 4398,
      "Ġnding": 4399,
      "jenge": 4400,
      "king": 4401,
      "razil": 4402,
      "Ġyokugqibela": 4403,
      "Ġiibhonasi": 4404,
      "Ġngumntu": 4405,
      "ĠuD": 4406,
      "Ġomn": 4407,
      "Ġkanti": 4408,
      "engum": 4409,
      "illi": 4410,
      "Ġesing": 4411,
      "Ġezweni": 4412,
      "jikeleza": 4413,
      "Ġyale": 4414,
      "Ġemibini": 4415,
      "http": 4416,
      "mvakalelo": 4417,
      "em": 4418,
      "sentla": 4419,
      "Ġngokuqhelekileyo": 4420,
      "qaba": 4421,
      "Ġyokusebenza": 4422,
      "khompyutha": 4423,
      "wonye": 4424,
      "Ġngezantsi": 4425,
      "....": 4426,
      "Ġubuncinane": 4427,
      "();": 4428,
      "papash": 4429,
      "pin": 4430,
      "ĠyeB": 4431,
      "ters": 4432,
      "gqo": 4433,
      "logi": 4434,
      "ĠIt": 4435,
      "ĠApha": 4436,
      "bhileni": 4437,
      "Ġyesibini": 4438,
      "yensi": 4439,
      "Ġukhethe": 4440,
      "Ġundi": 4441,
      "Ġzinoku": 4442,
      "Fi": 4443,
      "Ġofuna": 4444,
      "str": 4445,
      "olomon": 4446,
      "saseC": 4447,
      "Ġnent": 4448,
      "elosi": 4449,
      "ĠlikaYehova": 4450,
      "Ġecaleni": 4451,
      "ĠAir": 4452,
      "ebruwari": 4453,
      "Ġehamba": 4454,
      "ĠUmntu": 4455,
      "Ġyent": 4456,
      "thombe": 4457,
      "GQ": 4458,
      "Ġuy": 4459,
      "Ġiimpahla": 4460,
      "OR": 4461,
      "klasi": 4462,
      "Ġcrypto": 4463,
      "setyenziselwa": 4464,
      "qondweni": 4465,
      "KHO": 4466,
      "ĠUB": 4467,
      "fuma": 4468,
      "UT": 4469,
      "els": 4470,
      "Ġukuza": 4471,
      "Ġkwalo": 4472,
      "khutsh": 4473,
      "foma": 4474,
      "ĠImidlalo": 4475,
      "lath": 4476,
      "Ġnawo": 4477,
      "xabisa": 4478,
      "zanga": 4479,
      "Ġinzuzo": 4480,
      "qui": 4481,
      "liziyweni": 4482,
      "Ġelitsha": 4483,
      "propathi": 4484,
      "phonon": 4485,
      "xokozelo": 4486,
      "wazi": 4487,
      "ĠeYerusalem": 4488,
      "inika": 4489,
      "Ne": 4490,
      "uso": 4491,
      "Ġbee": 4492,
      "braham": 4493,
      "Kho": 4494,
      "Ġnguye": 4495,
      "Ġkwenu": 4496,
      "khuphiswano": 4497,
      "Ġkwazo": 4498,
      "sebenziswano": 4499,
      "Ġintombi": 4500,
      "kelelwa": 4501,
      "Ġkwiwebhusayithi": 4502,
      "Ġencinci": 4503,
      "nikelo": 4504,
      "mileyo": 4505,
      "Ġ^": 4506,
      "Ġslot": 4507,
      "angena": 4508,
      "Ġezingena": 4509,
      "kisha": 4510,
      "ĠnguThixo": 4511,
      "MP": 4512,
      "ĠeT": 4513,
      "qoph": 4514,
      "cor": 4515,
      "ĠuG": 4516,
      "ĠMhlawumbi": 4517,
      "phuhlisa": 4518,
      "Ġge": 4519,
      "Ġkwenziwa": 4520,
      "Ġumgca": 4521,
      "ĠUL": 4522,
      "Bhayibhileni": 4523,
      "Ġumbala": 4524,
      "yaniseka": 4525,
      "zelwe": 4526,
      "rian": 4527,
      "Ġbani": 4528,
      "Ġelandelayo": 4529,
      "ĠNgubani": 4530,
      "Cy": 4531,
      "Ġokulungileyo": 4532,
      "Ġmoya": 4533,
      "Ġtu": 4534,
      "ziweyo": 4535,
      "Ġying": 4536,
      "ĠUkwa": 4537,
      "lunganga": 4538,
      "aku": 4539,
      "Ġukuphucula": 4540,
      "Ġsasi": 4541,
      "fileyo": 4542,
      "Ġaphezulu": 4543,
      "ach": 4544,
      "bale": 4545,
      "ĠIqela": 4546,
      "ondon": 4547,
      "hlaselwa": 4548,
      "ud": 4549,
      "Ġndifuna": 4550,
      "jelo": 4551,
      "Ġuqa": 4552,
      "told": 4553,
      "Ġabane": 4554,
      "ĠNgaphezu": 4555,
      "londolo": 4556,
      "Ġndim": 4557,
      "qiniseka": 4558,
      "roadcast": 4559,
      "Ã§": 4560,
      "isile": 4561,
      "Ġwan": 4562,
      "meleyo": 4563,
      "isu": 4564,
      "vuyo": 4565,
      "wns": 4566,
      "KE": 4567,
      "my": 4568,
      "ququ": 4569,
      "lands": 4570,
      "qulun": 4571,
      "Ġize": 4572,
      "khuphe": 4573,
      "ĠSebenzisa": 4574,
      "Ġneng": 4575,
      "bemi": 4576,
      "titshala": 4577,
      "elane": 4578,
      "ĠEkugqibeleni": 4579,
      "kali": 4580,
      "Ġumyalelo": 4581,
      "Ġbenza": 4582,
      "bulawa": 4583,
      "Ġukunika": 4584,
      "ĠNAB": 4585,
      "HD": 4586,
      "zeli": 4587,
      "zane": 4588,
      "Ġngoxa": 4589,
      "Ġuko": 4590,
      "phelele": 4591,
      "qathango": 4592,
      "ĠUkongeza": 4593,
      "Ġukufa": 4594,
      "Ġyokuzonwabisa": 4595,
      "Ġeze": 4596,
      "Ġubuso": 4597,
      "Ġukunciphisa": 4598,
      "gqwetha": 4599,
      "cacile": 4600,
      "thuke": 4601,
      "Or": 4602,
      "Ġisisombululo": 4603,
      "ĠLive": 4604,
      "welonke": 4605,
      "mvelo": 4606,
      "phathekayo": 4607,
      "fes": 4608,
      "rand": 4609,
      "old": 4610,
      "Kumkani": 4611,
      "dom": 4612,
      "Ġlinga": 4613,
      "bangelwa": 4614,
      "cri": 4615,
      "tle": 4616,
      "Ġayina": 4617,
      "eleko": 4618,
      "Ġthis": 4619,
      "ZO": 4620,
      "ac": 4621,
      "Ġukulawula": 4622,
      "tyiswa": 4623,
      "Ġngenyanga": 4624,
      "AR": 4625,
      "Ġsimahla": 4626,
      "thembiso": 4627,
      "ppa": 4628,
      "kade": 4629,
      "endle": 4630,
      "nkqubo": 4631,
      "Ġyile": 4632,
      "Ġnezixhobo": 4633,
      "ĠUMa": 4634,
      "yanzel": 4635,
      "ziva": 4636,
      "Ġpla": 4637,
      "minye": 4638,
      "Ġngonaphakade": 4639,
      "ner": 4640,
      "kanti": 4641,
      "Ġngokuthe": 4642,
      "yanisweni": 4643,
      "bhapti": 4644,
      "Lizwi": 4645,
      "dlele": 4646,
      "qendu": 4647,
      "Ġngesandla": 4648,
      "Ġimoto": 4649,
      "balaseleyo": 4650,
      "ĠIsiKir": 4651,
      "Ġjo": 4652,
      "ĠiT": 4653,
      "Ġiifayile": 4654,
      "ny": 4655,
      "Ġikhadi": 4656,
      "Ġukunceda": 4657,
      "Ġintloko": 4658,
      "Ġidipozithi": 4659,
      "ktop": 4660,
      "Ġubone": 4661,
      "Ġukuva": 4662,
      "das": 4663,
      "Ġyezinto": 4664,
      "Ġabahlobo": 4665,
      "Ġezifanelekileyo": 4666,
      "lahlekelwa": 4667,
      "ngciphe": 4668,
      "SEO": 4669,
      "Za": 4670,
      "phala": 4671,
      "vulekileyo": 4672,
      "\";": 4673,
      "ĠKhawu": 4674,
      "ĠEyo": 4675,
      "qhutywa": 4676,
      "Ġ});": 4677,
      "ĠIB": 4678,
      "manani": 4679,
      "Ġndawonye": 4680,
      "selula": 4681,
      "Ġapp": 4682,
      "Ġwemi": 4683,
      "Ġshare": 4684,
      "Ġndithi": 4685,
      "low": 4686,
      "Ġzange": 4687,
      "ons": 4688,
      "xowa": 4689,
      "Ġkancinci": 4690,
      "chiza": 4691,
      "ĠeYurophu": 4692,
      "Ġngalinye": 4693,
      "Ġezibalulekileyo": 4694,
      "done": 4695,
      "tshisa": 4696,
      "pub": 4697,
      "obun": 4698,
      "ĠSI": 4699,
      "arth": 4700,
      "zerbai": 4701,
      "ÂŃ": 4702,
      "reen": 4703,
      "Ġcan": 4704,
      "Ġusebenzise": 4705,
      "ĠIsiO": 4706,
      "Ġyimi": 4707,
      "ĠnguM": 4708,
      "Ġinkqubela": 4709,
      "vumi": 4710,
      "chasene": 4711,
      "NA": 4712,
      "sic": 4713,
      "gcinwe": 4714,
      "ĠuMoses": 4715,
      "CC": 4716,
      "Sele": 4717,
      "ĠKw": 4718,
      "Ġsiku": 4719,
      "Ġndiye": 4720,
      "enaku": 4721,
      "qophiso": 4722,
      "sithathu": 4723,
      "andula": 4724,
      "bumn": 4725,
      "lindeleke": 4726,
      "elwimi": 4727,
      "Ġnabantwana": 4728,
      "lana": 4729,
      "ĠTha": 4730,
      "qinileyo": 4731,
      "kokeli": 4732,
      "Ġnamandla": 4733,
      "Ġsine": 4734,
      "dibeneyo": 4735,
      "Ġkus": 4736,
      "nam": 4737,
      "qakra": 4738,
      "sebenzini": 4739,
      "Ġebizwa": 4740,
      "zolo": 4741,
      "ĠDo": 4742,
      "tshuku": 4743,
      "baninzi": 4744,
      "ngoku": 4745,
      "angeli": 4746,
      "Ġkangaka": 4747,
      "Ġvi": 4748,
      "gxa": 4749,
      "Ġyefowuni": 4750,
      "ĠAsi": 4751,
      "fama": 4752,
      "Ġkukuthi": 4753,
      "ELE": 4754,
      "mbonakalo": 4755,
      "Ġiqhosha": 4756,
      "Ġukuhlala": 4757,
      "zisi": 4758,
      "Ġinjongo": 4759,
      "bong": 4760,
      "Ġinxalenye": 4761,
      "ĠBit": 4762,
      "ĠLed": 4763,
      "Ġngokwen": 4764,
      "hlon": 4765,
      "Ġkungekhona": 4766,
      "Ġsel": 4767,
      "fihlo": 4768,
      "ĠGe": 4769,
      "ĠIsiNgesi": 4770,
      "temp": 4771,
      "thumele": 4772,
      "GO": 4773,
      "yiyo": 4774,
      "ĠiC": 4775,
      "Ġabatsha": 4776,
      "lanzi": 4777,
      "Ġkuthatha": 4778,
      "Ġmail": 4779,
      "Sityhi": 4780,
      "ĠBiography": 4781,
      "Ġfo": 4782,
      "Ġabangama": 4783,
      "bhali": 4784,
      "tyu": 4785,
      "ĠIzixhobo": 4786,
      "Ġzokuba": 4787,
      "Ġizicelo": 4788,
      "ĠDlala": 4789,
      "kunene": 4790,
      "Ġhave": 4791,
      "Ġisiqe": 4792,
      "Ġekusebenz": 4793,
      "ĠNgokuqinisekileyo": 4794,
      "Ġfuthi": 4795,
      "Mveliso": 4796,
      "Ġkumn": 4797,
      "Melika": 4798,
      "malunga": 4799,
      "ĠIbhonasi": 4800,
      "mpuma": 4801,
      "zan": 4802,
      "Ġyokwenene": 4803,
      "qhube": 4804,
      "Ġamanyathelo": 4805,
      "tywala": 4806,
      "hashe": 4807,
      "Ġose": 4808,
      "Ġindima": 4809,
      "fundiswa": 4810,
      "inoku": 4811,
      "Ġyathi": 4812,
      "bhalwa": 4813,
      "Ġumbono": 4814,
      "Ġamanye": 4815,
      "Ġkhangela": 4816,
      "Ġintlawulo": 4817,
      "xube": 4818,
      "Ġebantwini": 4819,
      "AL": 4820,
      "thabathe": 4821,
      "ĠFacts": 4822,
      "postile": 4823,
      "cted": 4824,
      "futha": 4825,
      "leji": 4826,
      "gcini": 4827,
      "Ġengu": 4828,
      "ĠKhangela": 4829,
      "Ġukutshintsha": 4830,
      "hed": 4831,
      "Ġwobu": 4832,
      "qhubekayo": 4833,
      "Januwari": 4834,
      "Ġver": 4835,
      "mark": 4836,
      "hiya": 4837,
      "ĠEkubeni": 4838,
      "Ġneli": 4839,
      "ood": 4840,
      "TU": 4841,
      "ĠAuto": 4842,
      "Ġzawo": 4843,
      "kethe": 4844,
      "funeko": 4845,
      "ingo": 4846,
      "Ġelifanelekileyo": 4847,
      "CD": 4848,
      "Lung": 4849,
      "unge": 4850,
      "toli": 4851,
      "Ġukungena": 4852,
      "Oku": 4853,
      "TE": 4854,
      "Ġup": 4855,
      "Ġkusetyenziswa": 4856,
      "Ġngokwan": 4857,
      "mori": 4858,
      "Ġintanethi": 4859,
      "Ġesinye": 4860,
      "Ġithe": 4861,
      "Ġngxaki": 4862,
      "ĠbukaThixo": 4863,
      "td": 4864,
      "mazi": 4865,
      "Ġsho": 4866,
      "lanu": 4867,
      "bhedlele": 4868,
      "hente": 4869,
      "dumileyo": 4870,
      "curren": 4871,
      "('": 4872,
      "Ġlang": 4873,
      "tikiti": 4874,
      "chnology": 4875,
      "Ġngelithi": 4876,
      "unithi": 4877,
      "Ġyenu": 4878,
      "Ġkwabanye": 4879,
      "Ġngokugqithis": 4880,
      "Ġsaba": 4881,
      "Ġ>>": 4882,
      "anamhlanje": 4883,
      ":\"": 4884,
      "enoku": 4885,
      "futhe": 4886,
      "isebenze": 4887,
      "Ġkomhlaba": 4888,
      "Ġkangangokuba": 4889,
      "filimu": 4890,
      "tshukumo": 4891,
      "RI": 4892,
      "ener": 4893,
      "Ġkukunceda": 4894,
      "Ġkwiint": 4895,
      "ĠKwin": 4896,
      "ĠeG": 4897,
      "ĠUkwenza": 4898,
      "Ġumatshini": 4899,
      "ĠIsiMala": 4900,
      "wina": 4901,
      "ĠAp": 4902,
      "ĠamaSirayeli": 4903,
      "ĠOkanye": 4904,
      "âĢ¦âĢ¦": 4905,
      "hai": 4906,
      "khulula": 4907,
      "Ġelithile": 4908,
      "yint": 4909,
      "ĠUD": 4910,
      "arhente": 4911,
      "kelekile": 4912,
      "tshintshe": 4913,
      "dlebe": 4914,
      "ĠAnd": 4915,
      "late": 4916,
      "Ġolunga": 4917,
      "sasaza": 4918,
      "ink": 4919,
      "ĠReview": 4920,
      "bingelelo": 4921,
      "onka": 4922,
      "mile": 4923,
      "ĠNceda": 4924,
      "khowudi": 4925,
      "cele": 4926,
      "Ġinika": 4927,
      "Ġngamazwe": 4928,
      "Ġbakwazi": 4929,
      "Ġlon": 4930,
      "stanbul": 4931,
      "kulungwane": 4932,
      "Ġephakamileyo": 4933,
      "Ġnaluphi": 4934,
      "mbala": 4935,
      "ĠuR": 4936,
      "mic": 4937,
      "Ġizifundo": 4938,
      "Ġekhethekileyo": 4939,
      "sasazwa": 4940,
      "Ġabaphandi": 4941,
      "lekele": 4942,
      "miya": 4943,
      "Ġngenye": 4944,
      "Ġukuqala": 4945,
      "Ġyindawo": 4946,
      "Luka": 4947,
      "labathi": 4948,
      "change": 4949,
      "Instagram": 4950,
      "rie": 4951,
      "zuzwana": 4952,
      "Android": 4953,
      "ĠLea": 4954,
      "tse": 4955,
      "Ġkufanele": 4956,
      "Ġukuvelisa": 4957,
      "phulaphula": 4958,
      "chaphazele": 4959,
      "untu": 4960,
      "____": 4961,
      "luncedo": 4962,
      "Ġkwent": 4963,
      "val": 4964,
      "dlulayo": 4965,
      "ĠMachine": 4966,
      "ook": 4967,
      "Septemba": 4968,
      "Ġkho": 4969,
      "Ġwona": 4970,
      "elli": 4971,
      "ĠInkampani": 4972,
      "qanawa": 4973,
      "cwangcisa": 4974,
      "vin": 4975,
      "ĠCor": 4976,
      "gulane": 4977,
      "joliswe": 4978,
      "bongo": 4979,
      "hlangu": 4980,
      "Man": 4981,
      "Ġumbuzo": 4982,
      "funyenwe": 4983,
      "PC": 4984,
      "ume": 4985,
      "Ġyaying": 4986,
      "funo": 4987,
      "bhokhwe": 4988,
      "jenjalo": 4989,
      "isti": 4990,
      "boniswa": 4991,
      "Ġesikolweni": 4992,
      "guqulwa": 4993,
      "fini": 4994,
      "hlwe": 4995,
      "esheya": 4996,
      "hlalutyo": 4997,
      "jenga": 4998,
      "Ġuthetha": 4999,
      "Ġneza": 5000,
      "Ġzona": 5001,
      "Ġiim": 5002,
      "ase": 5003,
      "Ġakwa": 5004,
      "Ġkwawo": 5005,
      "tywayo": 5006,
      "mthethweni": 5007,
      "Ġukudala": 5008,
      "many": 5009,
      "ĠNgaloo": 5010,
      "ĠReal": 5011,
      "tabeni": 5012,
      "cama": 5013,
      "Nkonzo": 5014,
      "thulu": 5015,
      "Ġwenu": 5016,
      "yinyaniso": 5017,
      "FA": 5018,
      "Ġnexesha": 5019,
      "kane": 5020,
      "Ġebusuku": 5021,
      "ilo": 5022,
      "Ġuyise": 5023,
      "ĠNews": 5024,
      "AutoCAD": 5025,
      "Ġngokwaneleyo": 5026,
      "Ex": 5027,
      "vd": 5028,
      "mashumi": 5029,
      "unt": 5030,
      "Ġngokuzi": 5031,
      "Ġiifoto": 5032,
      "khulisa": 5033,
      "Ġnxa": 5034,
      "tyana": 5035,
      "Ġbeen": 5036,
      "bhedi": 5037,
      "Ġomhle": 5038,
      "hlaziya": 5039,
      "Mpuma": 5040,
      "ziswa": 5041,
      "manqaku": 5042,
      "Ġmasi": 5043,
      "station": 5044,
      "ĠYoku": 5045,
      "Ġï": 5046,
      "Ġukukhusela": 5047,
      "phelisa": 5048,
      "qheke": 5049,
      "RA": 5050,
      "Ġesikhulu": 5051,
      "khange": 5052,
      "linganiswa": 5053,
      "ĠNokuba": 5054,
      "Ġubungakanani": 5055,
      "mhlophe": 5056,
      "Ġumdlali": 5057,
      "tshata": 5058,
      "thwala": 5059,
      "andulo": 5060,
      "Do": 5061,
      "qhel": 5062,
      "khiqi": 5063,
      "donesia": 5064,
      "zerbaijani": 5065,
      "Ġkubonisa": 5066,
      "ĠUA": 5067,
      "Ġezincinci": 5068,
      "Ġbesithi": 5069,
      "Ġndoda": 5070,
      "Ġkwangaphambili": 5071,
      "Ġsifuna": 5072,
      "ĠUkususela": 5073,
      "gubo": 5074,
      "Ġubukhulu": 5075,
      "xhaswa": 5076,
      "Ġeyahlukileyo": 5077,
      "Ġifayile": 5078,
      "ĠImali": 5079,
      "ĠUkusetyenziswa": 5080,
      "AND": 5081,
      "Ã¶": 5082,
      "Ġezulwini": 5083,
      "Ġkubona": 5084,
      "kholwa": 5085,
      "Ġakayi": 5086,
      "jikelezayo": 5087,
      "Ġj": 5088,
      "kwabo": 5089,
      "Ġkusen": 5090,
      "Ġayo": 5091,
      "Ġyoluntu": 5092,
      "Roman": 5093,
      "Ġkwiing": 5094,
      "miti": 5095,
      "isithi": 5096,
      "caphu": 5097,
      "cetate": 5098,
      "oba": 5099,
      "Ġababini": 5100,
      "roa": 5101,
      "ĠNgamanye": 5102,
      "chool": 5103,
      "livere": 5104,
      "andro": 5105,
      "Ġnez": 5106,
      "ĠYOKU": 5107,
      "Ġelihle": 5108,
      "landele": 5109,
      "ĠIP": 5110,
      "Ġwokuba": 5111,
      "izi": 5112,
      "Ġiqabane": 5113,
      "kumisa": 5114,
      "Ġukukhangela": 5115,
      "teroid": 5116,
      "ĠyeH": 5117,
      "Ġizilwanyana": 5118,
      "phathelele": 5119,
      "ten": 5120,
      "Ġethe": 5121,
      "ĠLoo": 5122,
      "form": 5123,
      "yus": 5124,
      "Ġuthathe": 5125,
      "Ġumtshato": 5126,
      "Ġget": 5127,
      "Ġzokun": 5128,
      "turn": 5129,
      "echua": 5130,
      "hulu": 5131,
      "Ġveki": 5132,
      "sekelwe": 5133,
      "khoboka": 5134,
      "amuweli": 5135,
      "ken": 5136,
      "plas": 5137,
      "Ġukubeka": 5138,
      "Ġkwicala": 5139,
      "orld": 5140,
      "ĠJulayi": 5141,
      "Ġokwa": 5142,
      "Ġngako": 5143,
      "bume": 5144,
      "Ġuqinise": 5145,
      "ĠCent": 5146,
      "HLA": 5147,
      "ĠFran": 5148,
      "Ġolukhulu": 5149,
      "elungelo": 5150,
      "Phu": 5151,
      "zaku": 5152,
      "unu": 5153,
      "tyelwa": 5154,
      "ĠIsiAzerbaijani": 5155,
      "ĬĤ": 5156,
      "Ġenom": 5157,
      "Ġyokugcina": 5158,
      "Ġneendlela": 5159,
      "thukezi": 5160,
      "ĠImveliso": 5161,
      "Ġngokunjalo": 5162,
      "onic": 5163,
      "romo": 5164,
      "ĠAmer": 5165,
      "Ġamane": 5166,
      ":?": 5167,
      "Ġphandle": 5168,
      "Press": 5169,
      "mana": 5170,
      "Ġukujonga": 5171,
      "phumla": 5172,
      "DXO": 5173,
      "Fwww": 5174,
      "Ffinder": 5175,
      "VC": 5176,
      "ahttps": 5177,
      "okanye": 5178,
      "âĬĤ": 5179,
      "ukuba": 5180,
      "More": 5181,
      "Ġmailto": 5182,
      "siko": 5183,
      "raw": 5184,
      "mangalisayo": 5185,
      "ĠIxabiso": 5186,
      "yiki": 5187,
      "Ġngaphaya": 5188,
      "Ġnjengoku": 5189,
      "ĠNdinga": 5190,
      "ĠZiziphi": 5191,
      "ĠMi": 5192,
      "ĠQu": 5193,
      "ĠIsiQuechua": 5194,
      "BU": 5195,
      "ngeni": 5196,
      "Ġesinoku": 5197,
      "Ġilungelo": 5198,
      "ĠIya": 5199,
      "ĠAmandla": 5200,
      "LC": 5201,
      "ĠII": 5202,
      "Ġwill": 5203,
      "Untold": 5204,
      "hlangabezana": 5205,
      "gan": 5206,
      "Ġusa": 5207,
      "katha": 5208,
      "Ġlibe": 5209,
      "elelana": 5210,
      "vale": 5211,
      "Ġubani": 5212,
      "Ġimigaqo": 5213,
      "ĠBaya": 5214,
      "khiwe": 5215,
      "vis": 5216,
      "Ġkha": 5217,
      "komfa": 5218,
      "ĠLtd": 5219,
      "thenge": 5220,
      "qakraza": 5221,
      ",âĢĻ": 5222,
      "Ġ×": 5223,
      "elula": 5224,
      "Tes": 5225,
      "uma": 5226,
      "Ġekhoyo": 5227,
      "moti": 5228,
      "chain": 5229,
      "Ġnawuphi": 5230,
      "Ġencinane": 5231,
      "thotho": 5232,
      "ican": 5233,
      "Ġolo": 5234,
      "iler": 5235,
      "Ġdis": 5236,
      "qungquthela": 5237,
      "ÃŃ": 5238,
      "Ġbahlala": 5239,
      "burg": 5240,
      "isoloko": 5241,
      "Ġabalandeli": 5242,
      "khuba": 5243,
      "hlelo": 5244,
      "Ġkangakanani": 5245,
      "Windows": 5246,
      "Ġngolu": 5247,
      "qhubela": 5248,
      "zech": 5249,
      "Ġst": 5250,
      "yamezela": 5251,
      "eld": 5252,
      "Ġemsebenzini": 5253,
      "tshintshwa": 5254,
      "Theng": 5255,
      "kisayo": 5256,
      "kosikazi": 5257,
      "wayini": 5258,
      "Ġeman": 5259,
      "col": 5260,
      "powder": 5261,
      "Ġeyenziwe": 5262,
      "galog": 5263,
      "bano": 5264,
      "ĠIsiLu": 5265,
      "Ġubude": 5266,
      "ĠPower": 5267,
      "rds": 5268,
      "EC": 5269,
      "joni": 5270,
      "mes": 5271,
      "rade": 5272,
      "lity": 5273,
      "qiqo": 5274,
      "ðŁ": 5275,
      "Ġuni": 5276,
      "Indonesia": 5277,
      "lusi": 5278,
      "ump": 5279,
      "Ġezilishumi": 5280,
      "dan": 5281,
      "elin": 5282,
      "Ġingqondo": 5283,
      "Ġwawa": 5284,
      "Ġziquka": 5285,
      "cima": 5286,
      "rekhodi": 5287,
      "ĠOkokuqala": 5288,
      "Ġinter": 5289,
      "calu": 5290,
      "Ġmdlalo": 5291,
      "Ġndizi": 5292,
      "Ġkomnye": 5293,
      "ĠMeyi": 5294,
      "ving": 5295,
      "ĠuSi": 5296,
      "ĠIsiSwahili": 5297,
      "Is": 5298,
      "xwa": 5299,
      "tip": 5300,
      "Datshi": 5301,
      "Ġhas": 5302,
      "tis": 5303,
      "Ġkunceda": 5304,
      "ames": 5305,
      "Yakobi": 5306,
      "Ġiyi": 5307,
      "Ġyawo": 5308,
      "Ġhttp": 5309,
      "lali": 5310,
      "ĠAbo": 5311,
      "ĠIsixhobo": 5312,
      "ream": 5313,
      "ANC": 5314,
      "mboniso": 5315,
      "HT": 5316,
      "Ġphaya": 5317,
      "hlulo": 5318,
      "diza": 5319,
      "bolic": 5320,
      "ĠKan": 5321,
      "tsalane": 5322,
      "Ġuhla": 5323,
      "Ġakhawunti": 5324,
      "ship": 5325,
      "Ã¡": 5326,
      "Ġolung": 5327,
      "taly": 5328,
      "Ġbebe": 5329,
      "Ġwebsite": 5330,
      "RO": 5331,
      "ĠuJ": 5332,
      "Ġibu": 5333,
      "phulu": 5334,
      "Ġnamanye": 5335,
      "onakalo": 5336,
      "ary": 5337,
      "Ġbonus": 5338,
      "Ni": 5339,
      "ĠMic": 5340,
      "Ġunike": 5341,
      "Ġsoftware": 5342,
      "Ġnangoko": 5343,
      "GQIB": 5344,
      "iti": 5345,
      "load": 5346,
      "Ġiinjongo": 5347,
      "ĠEnkosi": 5348,
      "siya": 5349,
      "Ġinyama": 5350,
      "qabileyo": 5351,
      "ĠPri": 5352,
      "ful": 5353,
      "Ġ...]": 5354,
      "Ġumahluko": 5355,
      "Ġmb": 5356,
      "ĠPe": 5357,
      "xico": 5358,
      "singa": 5359,
      "Ġbeli": 5360,
      "qhinga": 5361,
      "lythe": 5362,
      "erika": 5363,
      "Ġsh": 5364,
      "boniso": 5365,
      "Ġkusebenza": 5366,
      "ĠFo": 5367,
      "zululwazi": 5368,
      "Ġnini": 5369,
      "krini": 5370,
      "ĠElitsha": 5371,
      "beli": 5372,
      "Ġlakwa": 5373,
      "phendule": 5374,
      "ĠBonke": 5375,
      "ĠCol": 5376,
      "qithi": 5377,
      "?âĢĶ": 5378,
      "cep": 5379,
      "Ġngempumelelo": 5380,
      "ĠMakhe": 5381,
      "luleka": 5382,
      "hakathi": 5383,
      "hlathi": 5384,
      "ĠBill": 5385,
      "Ġwani": 5386,
      "boniswe": 5387,
      "chazwa": 5388,
      "ia": 5389,
      "lango": 5390,
      "Ġuqale": 5391,
      "yiwe": 5392,
      "ĠGen": 5393,
      "Bawo": 5394,
      "Ġgirls": 5395,
      "Ġee": 5396,
      "khnoloji": 5397,
      "Ġmazwi": 5398,
      "pesenti": 5399,
      "qwe": 5400,
      "thyl": 5401,
      "Ġigazi": 5402,
      "dal": 5403,
      "Ġink": 5404,
      "wabo": 5405,
      "ĠUthe": 5406,
      "bango": 5407,
      "Ġngokubhekis": 5408,
      "Ġkumdlalo": 5409,
      "Ġnaseku": 5410,
      "Georgia": 5411,
      "qatha": 5412,
      "ĠHo": 5413,
      "khuselekile": 5414,
      "Ġinkulu": 5415,
      "tifike": 5416,
      "Ġlawo": 5417,
      "cokola": 5418,
      "jolise": 5419,
      "Ġephambili": 5420,
      "Ġkutsho": 5421,
      "ĠEurope": 5422,
      "jengoko": 5423,
      "):": 5424,
      "inya": 5425,
      "Ġungu": 5426,
      "ccess": 5427,
      "Ġowen": 5428,
      "Ġwaku": 5429,
      "ĠNgexesha": 5430,
      "Ġkangangoko": 5431,
      "Ġuvavanyo": 5432,
      "ĠKum": 5433,
      "hushu": 5434,
      "ongwa": 5435,
      "Ġiindidi": 5436,
      "Ġemangalisayo": 5437,
      "Ukuba": 5438,
      "Ġukubheja": 5439,
      "Ġleen": 5440,
      "pper": 5441,
      "ffu": 5442,
      "sy": 5443,
      "khohlo": 5444,
      "Ġyes": 5445,
      "Ġyakwa": 5446,
      "tudio": 5447,
      "reet": 5448,
      "pli": 5449,
      "wal": 5450,
      "thathaka": 5451,
      "Ġuxolo": 5452,
      "Ġamanani": 5453,
      "Ġngesondo": 5454,
      "Ġumthombo": 5455,
      "Ġmu": 5456,
      "ĠzeN": 5457,
      "Sebe": 5458,
      "Ġ==": 5459,
      "xhomekeka": 5460,
      "Be": 5461,
      "anqa": 5462,
      "ĠYena": 5463,
      "Ġsokuqala": 5464,
      "Ġele": 5465,
      "ĠUC": 5466,
      "Lawulo": 5467,
      "Faro": 5468,
      "lex": 5469,
      "Ġnot": 5470,
      "coma": 5471,
      "ruity": 5472,
      "pheliyo": 5473,
      "ĠUna": 5474,
      "ĠWo": 5475,
      "phunye": 5476,
      "isiseko": 5477,
      "Ġpre": 5478,
      "Ġndand": 5479,
      "Ġukwakha": 5480,
      "Ġeziliqela": 5481,
      "fumadas": 5482,
      "Ġsenze": 5483,
      "redit": 5484,
      "xenye": 5485,
      "Ñı": 5486,
      "bamba": 5487,
      "thethayo": 5488,
      "cocekileyo": 5489,
      "rmone": 5490,
      "tonga": 5491,
      "sian": 5492,
      "Ġwalo": 5493,
      "Ġsina": 5494,
      "ustra": 5495,
      "vakalisi": 5496,
      "Ġimin": 5497,
      "ĠStra": 5498,
      "vili": 5499,
      "gazini": 5500,
      "Ġwasi": 5501,
      "lockchain": 5502,
      "(\"": 5503,
      "wedish": 5504,
      "hlwele": 5505,
      "Ġnango": 5506,
      "benzi": 5507,
      "tyhu": 5508,
      "thole": 5509,
      "pot": 5510,
      "Ġ\"/": 5511,
      "ĠIsiTurk": 5512,
      "ĠPay": 5513,
      "Ġiinkampani": 5514,
      "fil": 5515,
      "ING": 5516,
      "âĢĭâĢĶ": 5517,
      "Ho": 5518,
      "bre": 5519,
      "Sathana": 5520,
      "ĠMicro": 5521,
      "BEN": 5522,
      "Mizekeliso": 5523,
      "Ġumyalezo": 5524,
      "ĠâĢĶ": 5525,
      "Ġ\"/\"": 5526,
      "Ġumama": 5527,
      "trong": 5528,
      "ĠUkongezelela": 5529,
      "Ġkhu": 5530,
      "oltip": 5531,
      "rist": 5532,
      "Levi": 5533,
      "cti": 5534,
      "Ġihlala": 5535,
      "Ġibali": 5536,
      "Ġebonakalayo": 5537,
      "omo": 5538,
      "Ġezimbi": 5539,
      "tshela": 5540,
      "cingo": 5541,
      "zame": 5542,
      "ĠEzemidlalo": 5543,
      "Ġunyaka": 5544,
      "jax": 5545,
      "ĠBay": 5546,
      "Ġ$(\".": 5547,
      "ĠshareText": 5548,
      "pre": 5549,
      "Ġina": 5550,
      "Ġnakwe": 5551,
      "Ġumvuzo": 5552,
      "Ġeziza": 5553,
      "phephe": 5554,
      "ĠngoM": 5555,
      "Ġyiyo": 5556,
      "cedisi": 5557,
      "Ġuhlala": 5558,
      "hlolis": 5559,
      "Ġezamahala": 5560,
      "inian": 5561,
      "bhsayithi": 5562,
      "Ġzokusebenza": 5563,
      "ders": 5564,
      "oney": 5565,
      "ĠUkusuka": 5566,
      "Ġnokusebenza": 5567,
      "Ġpm": 5568,
      "ONA": 5569,
      "ĠKaYehova": 5570,
      "Isaya": 5571,
      "ĠNgaphambi": 5572,
      "yolo": 5573,
      "Des": 5574,
      "Phe": 5575,
      "ĠWena": 5576,
      "ĠFili": 5577,
      "graphi": 5578,
      "melwane": 5579,
      "banika": 5580,
      "Ġkwiqela": 5581,
      "ĠKus": 5582,
      "lls": 5583,
      "Ġembi": 5584,
      "ĠUJ": 5585,
      "mbuso": 5586,
      "tayile": 5587,
      "ams": 5588,
      "ungary": 5589,
      "ffuser": 5590,
      "lamano": 5591,
      "Ġbali": 5592,
      "Ġzokuqala": 5593,
      "Ġnomhlaba": 5594,
      "Chippa": 5595,
      "ĠngoLwe": 5596,
      "yenzayo": 5597,
      "swele": 5598,
      "khwen": 5599,
      "Ġyendawo": 5600,
      "omatshini": 5601,
      "SIG": 5602,
      "onobumba": 5603,
      "gowuli": 5604,
      "xiba": 5605,
      "patial": 5606,
      "huthukezi": 5607,
      "Ġesiphezulu": 5608,
      "ull": 5609,
      "feni": 5610,
      "kini": 5611,
      "mka": 5612,
      "cawa": 5613,
      "tshatyala": 5614,
      "Ġsayo": 5615,
      "ĠIsiPhuthukezi": 5616,
      "ĠGeo": 5617,
      "kunkuma": 5618,
      "CE": 5619,
      "Ġkudala": 5620,
      "Ġukusa": 5621,
      "umo": 5622,
      "Ġimiyalelo": 5623,
      "zuko": 5624,
      "endleko": 5625,
      "Ġbobu": 5626,
      "khumbule": 5627,
      "Esi": 5628,
      "Tattoo": 5629,
      "kolelo": 5630,
      "Ġkwang": 5631,
      "table": 5632,
      "Ġfe": 5633,
      "ANI": 5634,
      "Kwa": 5635,
      "Ġch": 5636,
      "Ġkulungile": 5637,
      "ĠIza": 5638,
      "App": 5639,
      "thon": 5640,
      "sese": 5641,
      "Ġwali": 5642,
      "Ġkwamanzi": 5643,
      "ĠSouth": 5644,
      "onwabo": 5645,
      "cent": 5646,
      "iselwe": 5647,
      "Ġizicwangciso": 5648,
      "ĠVe": 5649,
      "Moya": 5650,
      "gent": 5651,
      "Ġkwakukho": 5652,
      "reole": 5653,
      "HU": 5654,
      "ÑĮ": 5655,
      "thandwayo": 5656,
      "kona": 5657,
      "yila": 5658,
      "Ġkwamanye": 5659,
      "peyin": 5660,
      "hlukana": 5661,
      "ĠUbomi": 5662,
      "ĠâĤ¬": 5663,
      "phuhliswa": 5664,
      "ĠamaKristu": 5665,
      "yanzele": 5666,
      "Ġefuna": 5667,
      "Ġkwedatha": 5668,
      "Ġnento": 5669,
      "thutho": 5670,
      "media": 5671,
      "fra": 5672,
      "kuhlaleni": 5673,
      "Ġukwandisa": 5674,
      "Ġibhokisi": 5675,
      "Ġkufuna": 5676,
      "Ġumzi": 5677,
      "Ġanoku": 5678,
      "Ġnamnye": 5679,
      "beng": 5680,
      "Ġawun": 5681,
      "Ġukung": 5682,
      "linde": 5683,
      "Ġgqitha": 5684,
      "thathwe": 5685,
      "vice": 5686,
      "bung": 5687,
      "khilo": 5688,
      "ISEK": 5689,
      "Â«": 5690,
      "Â»": 5691,
      "inise": 5692,
      "Ġephelileyo": 5693,
      "pheka": 5694,
      "Ġbeza": 5695,
      "qondi": 5696,
      "konwa": 5697,
      "Ġzine": 5698,
      "Ġokokuqala": 5699,
      "ÑĤÐ": 5700,
      "Ġzezo": 5701,
      "ĠFUN": 5702,
      "vakalisa": 5703,
      "bandakanywa": 5704,
      "roatia": 5705,
      "VD": 5706,
      "inter": 5707,
      "okumkani": 5708,
      "Ġabase": 5709,
      "urkey": 5710,
      "Xa": 5711,
      "sana": 5712,
      "lor": 5713,
      "yifumana": 5714,
      "mozulu": 5715,
      "elise": 5716,
      "orway": 5717,
      "ĠProdu": 5718,
      "Ġunayo": 5719,
      "Sityhilelo": 5720,
      "Ġ\\": 5721,
      "ĠuL": 5722,
      "Ġyeng": 5723,
      "don": 5724,
      "twe": 5725,
      "funwa": 5726,
      "Ġenjalo": 5727,
      "Ġminyaka": 5728,
      "Ġngokwakho": 5729,
      "Ġqu": 5730,
      "Ġgama": 5731,
      "ĠKhetha": 5732,
      "ĠAu": 5733,
      "Ġyenziwe": 5734,
      "sondela": 5735,
      "ngcipheko": 5736,
      "nyaka": 5737,
      "Ġigumbi": 5738,
      "lili": 5739,
      "diliya": 5740,
      "Ġizigqibo": 5741,
      "ĠSection": 5742,
      "krainian": 5743,
      "Word": 5744,
      "Ġufunde": 5745,
      "lick": 5746,
      "qongqo": 5747,
      "lone": 5748,
      "pil": 5749,
      "lesi": 5750,
      "dapter": 5751,
      "bande": 5752,
      "bekwa": 5753,
      "Ġyokufumana": 5754,
      "Ġezinzima": 5755,
      "Ġisixeko": 5756,
      "Ġokukhulu": 5757,
      "andipha": 5758,
      "tyiwe": 5759,
      "tana": 5760,
      "iselwano": 5761,
      "qaphela": 5762,
      "Ġsim": 5763,
      "Ġubudlelwane": 5764,
      "ĠZo": 5765,
      "Ġnendawo": 5766,
      "lahleka": 5767,
      "bonakaliyo": 5768,
      "AT": 5769,
      "Ġithetha": 5770,
      "Ġngeenxa": 5771,
      "ĠPer": 5772,
      "phuculwa": 5773,
      "Ġnezin": 5774,
      "Ġuyilo": 5775,
      "tain": 5776,
      "bhalisa": 5777,
      "ĠServer": 5778,
      "OT": 5779,
      "Ġsabo": 5780,
      "ongoma": 5781,
      "vanyo": 5782,
      "Ze": 5783,
      "hwe": 5784,
      "èª": 5785,
      "kuku": 5786,
      "come": 5787,
      "Ġumbon": 5788,
      "Genesis": 5789,
      "iss": 5790,
      "ĠAmadoda": 5791,
      "ura": 5792,
      "ĠyeC": 5793,
      "Ġamalungelo": 5794,
      "èªŀ": 5795,
      "ĠWam": 5796,
      "khumbuzo": 5797,
      "guquka": 5798,
      "Ġnaziphi": 5799,
      "Ġamahlanu": 5800,
      "Ġwokugqibela": 5801,
      "ĠTshin": 5802,
      "Februwari": 5803,
      "Ġnkqu": 5804,
      "vala": 5805,
      "Ġubuchule": 5806,
      "program": 5807,
      "msanqa": 5808,
      "vuselela": 5809,
      "QA": 5810,
      "anisi": 5811,
      "Ġmg": 5812,
      "Ġolunye": 5813,
      "Ġengcono": 5814,
      "QIN": 5815,
      "bin": 5816,
      "mvume": 5817,
      "Ġlwam": 5818,
      "Ġkwiimeko": 5819,
      "mbulula": 5820,
      "bwe": 5821,
      "ĠIsiXhosa": 5822,
      "phulaphuli": 5823,
      "Ġall": 5824,
      "Ġyokuthengisa": 5825,
      "Ġngasemva": 5826,
      "Ġezinge": 5827,
      "chaze": 5828,
      "chithe": 5829,
      "cwecwe": 5830,
      "Ġbafumane": 5831,
      "mesi": 5832,
      "ĠJuni": 5833,
      "Ġkwiphepha": 5834,
      "ross": 5835,
      "Ġeyadlulayo": 5836,
      "Ġmidlalo": 5837,
      "onate": 5838,
      "'...": 5839,
      "Ġroulette": 5840,
      "kwenze": 5841,
      "vie": 5842,
      "jikeleze": 5843,
      "ĠLeague": 5844,
      "ĠkaSirayeli": 5845,
      "ĠkweN": 5846,
      "Ġwon": 5847,
      "Ġndibe": 5848,
      "fuba": 5849,
      "Ġukufaka": 5850,
      "limi": 5851,
      "Ġngokutsha": 5852,
      "Ġizibonelelo": 5853,
      "jikelezo": 5854,
      "ĠAfrica": 5855,
      "Ġiwebhusayithi": 5856,
      "Ġbabu": 5857,
      "ĠLula": 5858,
      "ĠFruity": 5859,
      "khondo": 5860,
      "mail": 5861,
      "ĠNgen": 5862,
      "General": 5863,
      "Fdocid": 5864,
      "ĠNantsi": 5865,
      "Ġyay": 5866,
      "zuza": 5867,
      "national": 5868,
      "Ġkanjalo": 5869,
      "ens": 5870,
      "khosini": 5871,
      "ĠAka": 5872,
      "omnye": 5873,
      "khululwa": 5874,
      "ĠNgako": 5875,
      "ĠSiza": 5876,
      "ĠIsiCreole": 5877,
      "Cyril": 5878,
      "Ġethetha": 5879,
      "khwela": 5880,
      "Ġyemoto": 5881,
      "Ġngobun": 5882,
      "Ġlween": 5883,
      "Ġakuyi": 5884,
      "Ġendleleni": 5885,
      "IMI": 5886,
      "Ġikhowudi": 5887,
      "Ġakana": 5888,
      "xake": 5889,
      "Ġngamaxesha": 5890,
      "steroid": 5891,
      "mangaliso": 5892,
      "Ġumsebenzisi": 5893,
      "ĠSte": 5894,
      "Ġsimele": 5895,
      "Ġimizuzu": 5896,
      "sesikweni": 5897,
      "Per": 5898,
      "seni": 5899,
      "xes": 5900,
      "Ġesuka": 5901,
      "khuni": 5902,
      "Ġkarhulumente": 5903,
      "Ġyokuzi": 5904,
      "Ġemithathu": 5905,
      "chaphazelekayo": 5906,
      ".[": 5907,
      "ĠeK": 5908,
      "Ġsiba": 5909,
      "ĠKubalulekile": 5910,
      "sondo": 5911,
      "Ġibhetri": 5912,
      "search": 5913,
      "mihla": 5914,
      "Ġzihlala": 5915,
      "Ġliphela": 5916,
      "hambeni": 5917,
      "Social": 5918,
      "Dubai": 5919,
      "wanda": 5920,
      "zodwa": 5921,
      "Ġumele": 5922,
      "ĠCup": 5923,
      "khasi": 5924,
      "Ġtype": 5925,
      "Ġebi": 5926,
      "ĠkaM": 5927,
      "Ġzehlabathi": 5928,
      "Ġengqondweni": 5929,
      "Ġniya": 5930,
      "gxininisa": 5931,
      "danga": 5932,
      "Ġukukhula": 5933,
      "ĠHD": 5934,
      "dlule": 5935,
      "yano": 5936,
      "Ġkwela": 5937,
      "Ġyobun": 5938,
      "kuni": 5939,
      "gwa": 5940,
      "uri": 5941,
      "thengwa": 5942,
      "Ġndingu": 5943,
      "shuwa": 5944,
      "ĠAyi": 5945,
      "ĠUkukhanya": 5946,
      "ĠOktobha": 5947,
      "::::": 5948,
      "Ñĭ": 5949,
      "Ġukuthanda": 5950,
      "sayi": 5951,
      "Ġweza": 5952,
      "andathu": 5953,
      "Armeni": 5954,
      "ctor": 5955,
      "lahla": 5956,
      "Ġimbali": 5957,
      "dast": 5958,
      "Ġyomn": 5959,
      "ras": 5960,
      "ĠYehova": 5961,
      "Ġuyaku": 5962,
      "Va": 5963,
      "wabhi": 5964,
      "Ġothile": 5965,
      "mbisana": 5966,
      "ĠUkufumana": 5967,
      "Ġesina": 5968,
      "St": 5969,
      "Ġesebenzayo": 5970,
      "Ġukudibanisa": 5971,
      "Ġinqaku": 5972,
      "gqitywa": 5973,
      "linda": 5974,
      "preli": 5975,
      "Ġinyanga": 5976,
      "stitu": 5977,
      "ds": 5978,
      "jeni": 5979,
      "elinye": 5980,
      "leki": 5981,
      "olish": 5982,
      "wnload": 5983,
      "Ġebomvu": 5984,
      "Ġkuze": 5985,
      "shoni": 5986,
      "Fe": 5987,
      "Ġusapho": 5988,
      "Ġephantsi": 5989,
      "yoka": 5990,
      "phambu": 5991,
      "Ġumda": 5992,
      "Ġngetyala": 5993,
      "inaku": 5994,
      "Ops": 5995,
      "ĠUT": 5996,
      "Ġumculo": 5997,
      "Ġelishumi": 5998,
      "Vidiyo": 5999,
      "THIXO": 6000,
      "GQIBELA": 6001,
      "sebenzela": 6002,
      "jikelo": 6003,
      "Ġbubu": 6004,
      "ĠFUNDA": 6005,
      "Khan": 6006,
      "Ġengum": 6007,
      "qununu": 6008,
      "sweni": 6009,
      "ĠNet": 6010,
      "Ġezazi": 6011,
      "ĠAbadlali": 6012,
      "Ġelincinci": 6013,
      "ism": 6014,
      "Ġngok": 6015,
      "ĠDC": 6016,
      "Ġisiseko": 6017,
      "gameni": 6018,
      "Ġisebenzisa": 6019,
      "reat": 6020,
      "faki": 6021,
      "xhapha": 6022,
      "yatyambo": 6023,
      "Ġnem": 6024,
      "Ġliza": 6025,
      "Arc": 6026,
      "Ġintetho": 6027,
      "ĠAgasti": 6028,
      "mpo": 6029,
      "ĠIziphumo": 6030,
      "thembisa": 6031,
      "Rus": 6032,
      "khethwa": 6033,
      "Ġngenjongo": 6034,
      "Ġukucinga": 6035,
      "Ġnalapho": 6036,
      "Ġlis": 6037,
      "Ġlomntu": 6038,
      "ĠUkusebenzisa": 6039,
      "Ġiinwele": 6040,
      "hluke": 6041,
      "ĠState": 6042,
      "engubo": 6043,
      "llion": 6044,
      "yeki": 6045,
      "Ġngasentla": 6046,
      "tifi": 6047,
      "Ġzent": 6048,
      "Ġnolwazi": 6049,
      "Ġndicinga": 6050,
      "creen": 6051,
      "Ġlona": 6052,
      "kwanda": 6053,
      "ĠIsiChitonga": 6054,
      "artin": 6055,
      "anish": 6056,
      "ĠeL": 6057,
      "zekile": 6058,
      "Ġabafuna": 6059,
      "ĠbakaThixo": 6060,
      "pon": 6061,
      "phakan": 6062,
      "ĠCoin": 6063,
      "Ġugqirha": 6064,
      "benga": 6065,
      "ĠEarth": 6066,
      "tshayina": 6067,
      "phawula": 6068,
      "dola": 6069,
      "ANG": 6070,
      "estile": 6071,
      "Ġnxamnye": 6072,
      "wend": 6073,
      "ĠJi": 6074,
      "Go": 6075,
      "Zenzo": 6076,
      "qubu": 6077,
      "Ġiindwendwe": 6078,
      "labo": 6079,
      "Ġsteroid": 6080,
      "ĠWonke": 6081,
      "Ġzobun": 6082,
      "ĠIsiNa": 6083,
      "Ġpha": 6084,
      "Ġifuna": 6085,
      "kalisa": 6086,
      "bugcisa": 6087,
      "roma": 6088,
      "usin": 6089,
      "Ġbafumana": 6090,
      "ngo": 6091,
      "ĠEs": 6092,
      "Armenia": 6093,
      "UK": 6094,
      "Ġkumntu": 6095,
      "anada": 6096,
      "code": 6097,
      "khule": 6098,
      "Ġikhonkco": 6099,
      "sets": 6100,
      "ngu": 6101,
      "Ġnjengen": 6102,
      "ved": 6103,
      "Ġubona": 6104,
      "ĠNgama": 6105,
      "Ġkwigumbi": 6106,
      "ĠUKUZE": 6107,
      "less": 6108,
      "ĠEN": 6109,
      "ĠThina": 6110,
      "cker": 6111,
      "Ġbobabini": 6112,
      "Ġumbingeleli": 6113,
      "phazamiseka": 6114,
      "DL": 6115,
      "yunivesithi": 6116,
      "Ġuty": 6117,
      "gubung": 6118,
      "doloph": 6119,
      "Ad": 6120,
      "gne": 6121,
      "Ġukuli": 6122,
      "Ġobe": 6123,
      "Ġamaxabiso": 6124,
      "Ġkoonyana": 6125,
      "Ġbendi": 6126,
      "Ġngemali": 6127,
      "esotho": 6128,
      "ongi": 6129,
      "ĠYase": 6130,
      "lonyeni": 6131,
      "English": 6132,
      "ustralia": 6133,
      "ĠFilip": 6134,
      "eno": 6135,
      "yamekela": 6136,
      "hite": 6137,
      "bheli": 6138,
      "Ġeyenziwa": 6139,
      "ightener": 6140,
      "ĠKorinte": 6141,
      "Ġembalwa": 6142,
      "zeki": 6143
    }
  }
}